unsigned char modelo_comandos_tflite[] = {
  0x1c, 0x00, 0x00, 0x00, 0x54, 0x46, 0x4c, 0x33, 0x14, 0x00, 0x20, 0x00,
  0x1c, 0x00, 0x18, 0x00, 0x14, 0x00, 0x10, 0x00, 0x0c, 0x00, 0x00, 0x00,
  0x08, 0x00, 0x04, 0x00, 0x14, 0x00, 0x00, 0x00, 0x1c, 0x00, 0x00, 0x00,
  0x8c, 0x00, 0x00, 0x00, 0xe4, 0x00, 0x00, 0x00, 0x70, 0x47, 0x00, 0x00,
  0x80, 0x47, 0x00, 0x00, 0xc0, 0x53, 0x00, 0x00, 0x03, 0x00, 0x00, 0x00,
  0x01, 0x00, 0x00, 0x00, 0x04, 0x00, 0x00, 0x00, 0x82, 0xb7, 0xff, 0xff,
  0x0c, 0x00, 0x00, 0x00, 0x1c, 0x00, 0x00, 0x00, 0x3c, 0x00, 0x00, 0x00,
  0x0f, 0x00, 0x00, 0x00, 0x73, 0x65, 0x72, 0x76, 0x69, 0x6e, 0x67, 0x5f,
  0x64, 0x65, 0x66, 0x61, 0x75, 0x6c, 0x74, 0x00, 0x01, 0x00, 0x00, 0x00,
  0x04, 0x00, 0x00, 0x00, 0x90, 0xff, 0xff, 0xff, 0x11, 0x00, 0x00, 0x00,
  0x04, 0x00, 0x00, 0x00, 0x08, 0x00, 0x00, 0x00, 0x6f, 0x75, 0x74, 0x70,
  0x75, 0x74, 0x5f, 0x30, 0x00, 0x00, 0x00, 0x00, 0x01, 0x00, 0x00, 0x00,
  0x04, 0x00, 0x00, 0x00, 0x6a, 0xb8, 0xff, 0xff, 0x04, 0x00, 0x00, 0x00,
  0x0c, 0x00, 0x00, 0x00, 0x6b, 0x65, 0x72, 0x61, 0x73, 0x5f, 0x74, 0x65,
  0x6e, 0x73, 0x6f, 0x72, 0x00, 0x00, 0x00, 0x00, 0x02, 0x00, 0x00, 0x00,
  0x34, 0x00, 0x00, 0x00, 0x04, 0x00, 0x00, 0x00, 0xdc, 0xff, 0xff, 0xff,
  0x14, 0x00, 0x00, 0x00, 0x04, 0x00, 0x00, 0x00, 0x13, 0x00, 0x00, 0x00,
  0x43, 0x4f, 0x4e, 0x56, 0x45, 0x52, 0x53, 0x49, 0x4f, 0x4e, 0x5f, 0x4d,
  0x45, 0x54, 0x41, 0x44, 0x41, 0x54, 0x41, 0x00, 0x08, 0x00, 0x0c, 0x00,
  0x08, 0x00, 0x04, 0x00, 0x08, 0x00, 0x00, 0x00, 0x13, 0x00, 0x00, 0x00,
  0x04, 0x00, 0x00, 0x00, 0x13, 0x00, 0x00, 0x00, 0x6d, 0x69, 0x6e, 0x5f,
  0x72, 0x75, 0x6e, 0x74, 0x69, 0x6d, 0x65, 0x5f, 0x76, 0x65, 0x72, 0x73,
  0x69, 0x6f, 0x6e, 0x00, 0x15, 0x00, 0x00, 0x00, 0x88, 0x46, 0x00, 0x00,
  0x80, 0x46, 0x00, 0x00, 0x50, 0x46, 0x00, 0x00, 0x20, 0x45, 0x00, 0x00,
  0x08, 0x45, 0x00, 0x00, 0xe4, 0x44, 0x00, 0x00, 0x54, 0x44, 0x00, 0x00,
  0xc4, 0x41, 0x00, 0x00, 0x74, 0x41, 0x00, 0x00, 0xe4, 0x3c, 0x00, 0x00,
  0xd4, 0x00, 0x00, 0x00, 0xcc, 0x00, 0x00, 0x00, 0xc4, 0x00, 0x00, 0x00,
  0xbc, 0x00, 0x00, 0x00, 0xb4, 0x00, 0x00, 0x00, 0xac, 0x00, 0x00, 0x00,
  0xa4, 0x00, 0x00, 0x00, 0x9c, 0x00, 0x00, 0x00, 0x94, 0x00, 0x00, 0x00,
  0x74, 0x00, 0x00, 0x00, 0x04, 0x00, 0x00, 0x00, 0x3a, 0xb9, 0xff, 0xff,
  0x04, 0x00, 0x00, 0x00, 0x60, 0x00, 0x00, 0x00, 0x0c, 0x00, 0x00, 0x00,
  0x08, 0x00, 0x0e, 0x00, 0x08, 0x00, 0x04, 0x00, 0x08, 0x00, 0x00, 0x00,
  0x10, 0x00, 0x00, 0x00, 0x28, 0x00, 0x00, 0x00, 0x00, 0x00, 0x06, 0x00,
  0x08, 0x00, 0x04, 0x00, 0x06, 0x00, 0x00, 0x00, 0x04, 0x00, 0x00, 0x00,
  0x01, 0x00, 0x00, 0x00, 0xea, 0x03, 0x00, 0x00, 0x0c, 0x00, 0x18, 0x00,
  0x14, 0x00, 0x10, 0x00, 0x0c, 0x00, 0x04, 0x00, 0x0c, 0x00, 0x00, 0x00,
  0x8c, 0x73, 0xb4, 0x98, 0xee, 0xbe, 0x0e, 0x90, 0x02, 0x00, 0x00, 0x00,
  0x02, 0x00, 0x00, 0x00, 0x04, 0x00, 0x00, 0x00, 0x06, 0x00, 0x00, 0x00,
  0x32, 0x2e, 0x31, 0x38, 0x2e, 0x30, 0x00, 0x00, 0xa6, 0xb9, 0xff, 0xff,
  0x04, 0x00, 0x00, 0x00, 0x10, 0x00, 0x00, 0x00, 0x32, 0x2e, 0x31, 0x37,
  0x2e, 0x30, 0x00, 0x00, 0x00, 0x00, 0x00, 0x00, 0x00, 0x00, 0x00, 0x00,
  0x38, 0xae, 0xff, 0xff, 0x3c, 0xae, 0xff, 0xff, 0x40, 0xae, 0xff, 0xff,
  0x44, 0xae, 0xff, 0xff, 0x48, 0xae, 0xff, 0xff, 0x4c, 0xae, 0xff, 0xff,
  0x50, 0xae, 0xff, 0xff, 0x54, 0xae, 0xff, 0xff, 0xe2, 0xb9, 0xff, 0xff,
  0x04, 0x00, 0x00, 0x00, 0x00, 0x3c, 0x00, 0x00, 0x2f, 0xdd, 0x28, 0xa4,
  0xaa, 0x5f, 0x1e, 0x12, 0xc8, 0xfe, 0xc3, 0x5d, 0x0c, 0xe6, 0x0b, 0x5c,
  0x2a, 0xad, 0x37, 0xd6, 0xde, 0x14, 0x4c, 0x13, 0x15, 0xb1, 0x1f, 0x71,
  0x18, 0xe8, 0x0f, 0x37, 0x2f, 0x96, 0xf6, 0xe0, 0xd2, 0xf5, 0x47, 0x06,
  0xc2, 0x89, 0xf8, 0xf8, 0xb2, 0xb6, 0x47, 0x30, 0x2d, 0xfc, 0xa0, 0xb7,
  0x9b, 0x4f, 0x61, 0x2e, 0x99, 0x4d, 0x5c, 0xbb, 0x92, 0xfc, 0xcc, 0xca,
  0x04, 0xed, 0xbf, 0x57, 0x32, 0x1e, 0x2d, 0xe9, 0x57, 0xf9, 0xea, 0x4f,
  0x1b, 0xcc, 0x77, 0x61, 0x2c, 0x9a, 0xf7, 0xae, 0xd3, 0x57, 0x99, 0x46,
  0x34, 0x28, 0x25, 0x18, 0xe4, 0x63, 0xfe, 0x63, 0x01, 0x03, 0xe4, 0xc4,
  0x3f, 0xe6, 0xca, 0x49, 0xa8, 0x6d, 0x93, 0xe4, 0x2c, 0x07, 0x33, 0xc0,
  0x5e, 0xe4, 0x4a, 0x15, 0xca, 0x34, 0xa2, 0xf1, 0x34, 0x22, 0x15, 0x39,
  0xc7, 0xe4, 0xdb, 0x71, 0x40, 0x0d, 0xa2, 0xf0, 0x1f, 0xb0, 0xa9, 0xdf,
  0xde, 0xbc, 0xe5, 0x90, 0xe5, 0x43, 0x36, 0x1a, 0xe2, 0xe0, 0x9a, 0xf1,
  0xdc, 0x77, 0x4f, 0x3b, 0x46, 0x6b, 0x33, 0x4c, 0x08, 0xa5, 0xef, 0x4c,
  0x9d, 0xef, 0xba, 0xbe, 0xb7, 0xbf, 0x8e, 0xab, 0xcc, 0x01, 0x42, 0xb2,
  0xa4, 0x5d, 0x0f, 0xb0, 0xd5, 0x56, 0xd1, 0x23, 0x9b, 0x75, 0x22, 0xa2,
  0xd1, 0x3a, 0x07, 0x4e, 0x3d, 0x93, 0x97, 0xaa, 0x6b, 0x24, 0xc9, 0xd1,
  0x30, 0x78, 0xf1, 0x3a, 0xa7, 0xa7, 0xfa, 0x38, 0xc2, 0xc9, 0x51, 0x6e,
  0xec, 0x0b, 0xaa, 0x3c, 0xab, 0xc4, 0xfe, 0x0c, 0xb1, 0x30, 0x60, 0x49,
  0x9d, 0x81, 0xe2, 0xe8, 0xb2, 0x39, 0x48, 0x50, 0x34, 0xd7, 0x3a, 0x1e,
  0x9d, 0xa9, 0x98, 0xfa, 0xab, 0x39, 0x25, 0x35, 0x9e, 0xd3, 0x64, 0x2c,
  0xff, 0xab, 0x11, 0x4e, 0xed, 0x6b, 0x4b, 0x2f, 0x3b, 0x90, 0xea, 0xb9,
  0x4d, 0x98, 0x57, 0xeb, 0x39, 0x4d, 0x0c, 0x30, 0x1f, 0x97, 0xe6, 0xca,
  0x25, 0xda, 0xd2, 0xc6, 0xe4, 0x41, 0xa1, 0x57, 0xbd, 0x6d, 0x03, 0xed,
  0xa0, 0xbb, 0xa5, 0xb1, 0x3d, 0xb1, 0xe0, 0x29, 0xbd, 0x48, 0x16, 0x30,
  0xe3, 0xf2, 0xaa, 0xc8, 0x02, 0x54, 0xaf, 0x90, 0xf5, 0x42, 0xa5, 0x2c,
  0x94, 0x31, 0xc4, 0xdb, 0x03, 0x35, 0xfa, 0x23, 0xc8, 0x56, 0x16, 0x83,
  0xbb, 0x46, 0xcd, 0x07, 0xe0, 0xc1, 0xe0, 0x9c, 0x2d, 0x36, 0x28, 0xf5,
  0x4e, 0xee, 0x5a, 0xe2, 0x65, 0x8c, 0x9f, 0xc6, 0xb9, 0x2e, 0xbe, 0xbd,
  0xab, 0xcd, 0x64, 0xef, 0x28, 0x47, 0xe6, 0xfc, 0x6c, 0x6d, 0x0e, 0x24,
  0x37, 0x41, 0x17, 0xc7, 0x46, 0x7a, 0xb5, 0xc4, 0x56, 0x52, 0x9b, 0xb7,
  0x3e, 0xb8, 0xc8, 0xdb, 0x37, 0xef, 0x54, 0xb0, 0x46, 0x1b, 0xdc, 0xf7,
  0x5b, 0x2e, 0x11, 0x5a, 0x0c, 0xcd, 0xee, 0xac, 0xed, 0x15, 0x59, 0xb7,
  0x97, 0xf0, 0xe7, 0xed, 0x51, 0x49, 0x97, 0xab, 0x28, 0x02, 0x36, 0x58,
  0xc8, 0xaf, 0xce, 0xe9, 0xea, 0x1f, 0xff, 0xcd, 0xe0, 0xa0, 0xec, 0x7f,
  0xdc, 0xac, 0xc1, 0x8f, 0x4f, 0xf0, 0xdf, 0xb3, 0xfc, 0xd7, 0x11, 0xb7,
  0x11, 0xfa, 0xb7, 0xf6, 0xa6, 0x61, 0x03, 0xb4, 0x47, 0x99, 0x8c, 0x58,
  0x08, 0xb9, 0x9b, 0xec, 0xff, 0xee, 0x2f, 0x64, 0x64, 0x0f, 0x12, 0x4d,
  0xb4, 0x57, 0x43, 0x93, 0x06, 0x3f, 0x0c, 0x50, 0xb1, 0x2f, 0xfb, 0xc9,
  0xfd, 0xd9, 0x34, 0xf3, 0xdd, 0xc1, 0xe1, 0xd9, 0x38, 0x2b, 0x3d, 0x63,
  0x92, 0x31, 0x57, 0xce, 0xd7, 0x17, 0x01, 0x71, 0xa5, 0xe2, 0x0b, 0x50,
  0x2f, 0x12, 0x0d, 0x21, 0x5a, 0xb4, 0x0d, 0xa3, 0xba, 0x12, 0x4b, 0x9c,
  0x25, 0x07, 0x4a, 0xc8, 0xfc, 0x8f, 0x0e, 0x40, 0xfa, 0x54, 0x93, 0xfb,
  0xf8, 0xb1, 0x04, 0xaf, 0x8f, 0xb1, 0x3c, 0x47, 0x09, 0x92, 0xc1, 0xf6,
  0x8c, 0xfc, 0x14, 0xaf, 0x34, 0x28, 0x2e, 0x2b, 0xfb, 0xc4, 0xca, 0xfc,
  0xa0, 0xd0, 0xe1, 0x1c, 0x3e, 0x4e, 0x9c, 0x53, 0x15, 0x2d, 0x00, 0x3b,
  0x37, 0xbf, 0x68, 0xea, 0x14, 0xc0, 0xc9, 0xe5, 0x5d, 0xc5, 0xba, 0x0e,
  0x45, 0xd7, 0x9f, 0xd9, 0xbe, 0x8f, 0xb0, 0x58, 0xd8, 0x27, 0x01, 0xd6,
  0x32, 0x19, 0x31, 0x5c, 0xc9, 0x47, 0x09, 0x91, 0x27, 0x48, 0xb2, 0xa0,
  0xde, 0xfc, 0x2b, 0xe1, 0xea, 0x0f, 0x65, 0xc1, 0x3a, 0x65, 0xcc, 0x2f,
  0x1d, 0xf7, 0x25, 0xae, 0x2c, 0xc2, 0x1b, 0xe3, 0x04, 0xa0, 0xbb, 0x4c,
  0xe6, 0x3f, 0x54, 0x2a, 0xdd, 0x2f, 0x64, 0x28, 0x34, 0xea, 0xf7, 0xbd,
  0xca, 0x3e, 0x61, 0x45, 0x66, 0xc3, 0x0a, 0x3a, 0x00, 0xdb, 0xe9, 0x22,
  0xe8, 0xa3, 0xfc, 0x96, 0x21, 0x22, 0x33, 0x2e, 0xac, 0xf8, 0xfc, 0xbf,
  0xf0, 0x64, 0x69, 0x6b, 0x24, 0x5d, 0xba, 0xa4, 0xaa, 0xf4, 0x55, 0x18,
  0xca, 0xf6, 0xd2, 0x81, 0x98, 0x0d, 0xe1, 0xad, 0x57, 0xd1, 0x23, 0xb4,
  0xea, 0xd4, 0x3b, 0x41, 0xb9, 0xd3, 0x0d, 0xbb, 0xed, 0x4a, 0x52, 0x15,
  0xf3, 0xe5, 0x16, 0x95, 0x4f, 0x08, 0x3e, 0xd9, 0x21, 0x3f, 0x20, 0x0f,
  0x45, 0xec, 0x4d, 0x2c, 0x95, 0x60, 0xaf, 0x01, 0x2e, 0x6e, 0x03, 0x58,
  0xe5, 0xa6, 0x1e, 0x50, 0x20, 0x07, 0x03, 0x64, 0xa8, 0xd3, 0xf7, 0x3f,
  0x64, 0xf4, 0xfb, 0xff, 0x9e, 0x47, 0x67, 0x39, 0x23, 0xb8, 0xe5, 0xc4,
  0x56, 0x0b, 0xe7, 0x3e, 0xfc, 0x36, 0x63, 0xb9, 0x21, 0x5b, 0xdb, 0x22,
  0x4c, 0x32, 0x1e, 0x6b, 0x52, 0xa8, 0xb7, 0x20, 0xb2, 0x9c, 0xf6, 0x9c,
  0x30, 0x43, 0x03, 0x09, 0xf9, 0x35, 0x41, 0xe8, 0xcb, 0x05, 0x26, 0xff,
  0xb1, 0xa4, 0x22, 0xbc, 0x63, 0xee, 0x93, 0x41, 0xbd, 0xaa, 0x28, 0x0f,
  0x37, 0xed, 0xa8, 0x6c, 0x05, 0xd5, 0xbd, 0xd5, 0xac, 0x5e, 0x31, 0xcc,
  0xd1, 0x69, 0x73, 0x66, 0x64, 0xa0, 0xde, 0x12, 0xfb, 0x5c, 0xba, 0xb4,
  0x53, 0x39, 0x5f, 0xa9, 0xb7, 0x5a, 0x14, 0xf0, 0xce, 0x50, 0x69, 0x10,
  0xdf, 0xa4, 0x45, 0x05, 0xe1, 0xa5, 0x32, 0x32, 0xc4, 0xc1, 0xd4, 0x44,
  0xce, 0x93, 0xe5, 0x5d, 0x39, 0xf4, 0x05, 0x4c, 0xfd, 0xdc, 0xf9, 0x51,
  0x3d, 0x4b, 0x60, 0xb4, 0xf6, 0x19, 0x4d, 0xaf, 0x52, 0xe0, 0x64, 0xf5,
  0x19, 0x9a, 0xa9, 0x54, 0xe5, 0xfd, 0xfe, 0xc3, 0xed, 0xa8, 0xe6, 0xec,
  0xfd, 0xc1, 0x23, 0xf7, 0xdd, 0x12, 0x4f, 0xcd, 0x4e, 0x0c, 0x1e, 0xed,
  0xe9, 0xac, 0x53, 0xe1, 0x61, 0xda, 0x1f, 0x5c, 0x2c, 0x65, 0xe9, 0xa0,
  0x27, 0xad, 0xcd, 0xcf, 0xa0, 0xcd, 0x40, 0xed, 0x58, 0xaf, 0x43, 0x22,
  0x50, 0xd0, 0x1c, 0x1a, 0x3f, 0xed, 0x59, 0xda, 0x16, 0xdd, 0x22, 0xe6,
  0x6f, 0x1b, 0x48, 0x67, 0xb6, 0x9e, 0xbd, 0xea, 0x63, 0xc4, 0x54, 0x00,
  0xf2, 0x10, 0xe5, 0xdf, 0xe5, 0xb4, 0xd0, 0xa2, 0x5f, 0xcc, 0xc4, 0xf6,
  0x0d, 0xec, 0xcb, 0x9d, 0x58, 0x05, 0x41, 0x94, 0x3b, 0x29, 0x54, 0xa3,
  0xda, 0xb3, 0xb9, 0x19, 0xd1, 0xc7, 0x3d, 0xb3, 0xcf, 0x0a, 0xbf, 0x69,
  0x22, 0x1d, 0x8d, 0x63, 0xb4, 0x11, 0xc5, 0xf1, 0x3d, 0x06, 0x4c, 0xf2,
  0x45, 0x38, 0x3e, 0x17, 0xb2, 0x85, 0xf8, 0x9f, 0x83, 0xb4, 0x1a, 0x12,
  0x53, 0x86, 0xfd, 0x8d, 0xc4, 0xc4, 0xcd, 0x6e, 0x96, 0xe8, 0xb6, 0xaf,
  0x17, 0xec, 0x08, 0x1f, 0x4b, 0xc3, 0x3d, 0x81, 0xe3, 0x54, 0xd3, 0x54,
  0x95, 0xbd, 0xb4, 0x14, 0xd7, 0x50, 0x40, 0xb5, 0xf1, 0x0f, 0xd0, 0xfd,
  0xb2, 0x2b, 0x2a, 0x1b, 0x54, 0x93, 0x43, 0x6f, 0x98, 0xf2, 0xdb, 0xd0,
  0x8b, 0xcd, 0x30, 0x5c, 0x08, 0x30, 0x2d, 0xb6, 0xc1, 0xf5, 0x1c, 0x83,
  0x8f, 0x44, 0xdf, 0xfc, 0xd2, 0xff, 0xa5, 0x53, 0x4a, 0xb7, 0x8e, 0x8b,
  0x6b, 0x35, 0xa2, 0x0a, 0xc4, 0x0a, 0x46, 0x46, 0x54, 0x68, 0xcc, 0xbf,
  0x8b, 0x0b, 0xba, 0x01, 0x3b, 0x02, 0x0e, 0xb6, 0x2d, 0x8a, 0x68, 0x2c,
  0x70, 0xf4, 0xec, 0x38, 0x26, 0x0d, 0xe6, 0xe2, 0xd7, 0xa9, 0x34, 0xfa,
  0xe3, 0xae, 0x39, 0x17, 0x34, 0xd1, 0xc5, 0xcf, 0x5d, 0x8f, 0xbd, 0xb5,
  0x60, 0x4a, 0x0e, 0x49, 0x41, 0x09, 0x1e, 0x5f, 0xb9, 0x59, 0x6e, 0x2c,
  0x3c, 0xc5, 0x85, 0x35, 0x59, 0x9f, 0x08, 0x51, 0x16, 0x69, 0xdd, 0xaa,
  0x9d, 0x6d, 0x71, 0xf0, 0x3d, 0xbc, 0x44, 0x20, 0x55, 0xb9, 0xf8, 0xc3,
  0xe5, 0x87, 0x5a, 0x0c, 0xb7, 0x10, 0xf7, 0x1b, 0xc9, 0x8a, 0x8d, 0xde,
  0xee, 0xb0, 0x1b, 0x63, 0xeb, 0x61, 0x67, 0xa9, 0x2d, 0x87, 0x59, 0x54,
  0xfe, 0xea, 0x04, 0xb1, 0x5f, 0xd2, 0x13, 0x01, 0xbd, 0xf4, 0xf1, 0x50,
  0xde, 0xe9, 0xbb, 0x00, 0x26, 0x12, 0x27, 0x08, 0x47, 0xdb, 0xd3, 0x01,
  0x98, 0xc2, 0xcd, 0xad, 0xb7, 0x69, 0xc3, 0x2a, 0x8a, 0xa0, 0x41, 0xab,
  0xd3, 0x9e, 0x82, 0xeb, 0x48, 0xa2, 0xfb, 0x61, 0xb3, 0xd9, 0x2c, 0x36,
  0x4c, 0x35, 0xd9, 0x0d, 0x71, 0x51, 0xbc, 0x28, 0xff, 0x97, 0x46, 0x14,
  0xe9, 0x83, 0xb4, 0x25, 0x23, 0x5a, 0xd5, 0x37, 0xc9, 0x6c, 0x6a, 0xef,
  0x96, 0xb4, 0xbf, 0x0a, 0xdb, 0x3e, 0xf3, 0xb9, 0xe2, 0xb4, 0xe4, 0xd4,
  0xd0, 0x8c, 0x42, 0x8d, 0x8e, 0x44, 0x9b, 0xa1, 0x1d, 0x15, 0x05, 0xcd,
  0x62, 0xdf, 0xa7, 0xaa, 0x2f, 0x96, 0x1d, 0x31, 0x92, 0x9d, 0x69, 0xa5,
  0x11, 0x52, 0x03, 0x85, 0x82, 0x2e, 0x41, 0x85, 0xea, 0xb0, 0xfc, 0x9a,
  0x37, 0x16, 0x40, 0x10, 0x9c, 0x12, 0x16, 0xda, 0x24, 0xd5, 0x88, 0xa0,
  0xf7, 0xfe, 0xc0, 0x63, 0x55, 0x4e, 0x8d, 0xd1, 0xa9, 0x40, 0x62, 0xca,
  0xfa, 0xd4, 0xd0, 0x6f, 0xef, 0x2e, 0x03, 0x0b, 0x4a, 0x2e, 0x3d, 0x6c,
  0x6b, 0x00, 0x26, 0x8c, 0x5c, 0xc9, 0xe7, 0x30, 0xb7, 0xd3, 0x0e, 0xc3,
  0x3f, 0x9e, 0xa5, 0x54, 0xaf, 0x5a, 0x0f, 0xd3, 0x5d, 0xe3, 0x3e, 0xd1,
  0xfd, 0xcd, 0xb4, 0xe8, 0xce, 0x42, 0x09, 0xa5, 0x4d, 0x16, 0x20, 0x61,
  0xe5, 0xd3, 0x91, 0x85, 0x4c, 0xe6, 0xc3, 0x36, 0xf0, 0x41, 0xd9, 0x4c,
  0xac, 0x4e, 0xb3, 0x9c, 0xfe, 0xb1, 0x23, 0xe6, 0x46, 0xbc, 0xe7, 0xfa,
  0xd6, 0x2b, 0x26, 0x1d, 0xe1, 0xba, 0x27, 0x60, 0x3c, 0x32, 0x99, 0xa4,
  0x43, 0x85, 0xa9, 0xa5, 0x4e, 0x8b, 0xea, 0xd6, 0x3b, 0xaf, 0xb2, 0x94,
  0x6c, 0xb8, 0xe7, 0xea, 0xa2, 0x85, 0x55, 0x19, 0xaa, 0xf8, 0xde, 0xd0,
  0x2e, 0x21, 0xe5, 0x26, 0x93, 0xbf, 0x2a, 0x9d, 0x22, 0xd5, 0x13, 0xb8,
  0x9f, 0x37, 0xa5, 0xaf, 0x6b, 0xd9, 0xc3, 0x38, 0x8a, 0x68, 0x13, 0xae,
  0x8d, 0xe7, 0x2d, 0x57, 0x0a, 0xee, 0xc7, 0xfd, 0xb6, 0xa3, 0xfd, 0xc2,
  0x9d, 0x09, 0xf5, 0xb8, 0xc2, 0x18, 0xf9, 0x70, 0xe2, 0x58, 0x55, 0x68,
  0x2e, 0x2a, 0x31, 0x12, 0x00, 0x4b, 0xa9, 0x83, 0x50, 0x90, 0xc3, 0x5b,
  0x40, 0xa6, 0x08, 0x11, 0x5b, 0xeb, 0x8e, 0xb9, 0xf2, 0x62, 0x20, 0x33,
  0xbf, 0xaf, 0xf9, 0x81, 0xa1, 0x4e, 0x93, 0xab, 0xef, 0x0a, 0xfb, 0x29,
  0xb6, 0xa9, 0x4b, 0x9c, 0x09, 0x65, 0xb9, 0xbf, 0x42, 0x56, 0x35, 0x1e,
  0x20, 0xb2, 0x34, 0x1a, 0x63, 0xa8, 0x45, 0x25, 0xe5, 0x03, 0x3a, 0xc4,
  0xfa, 0x8d, 0xcb, 0x18, 0x56, 0xda, 0xe6, 0xf0, 0x2e, 0x9a, 0x16, 0x28,
  0xc4, 0x4b, 0x9c, 0x9a, 0xc5, 0xa8, 0xf2, 0xa6, 0xd3, 0x57, 0x06, 0x46,
  0x0a, 0xe9, 0xa8, 0x1c, 0x51, 0xf9, 0xf7, 0x96, 0x59, 0xb3, 0x30, 0xb6,
  0xfc, 0x0c, 0xbb, 0xe8, 0x61, 0x43, 0x04, 0x97, 0x1d, 0x9d, 0xb5, 0xb0,
  0xcf, 0xda, 0x49, 0x1e, 0xdd, 0x1d, 0xdd, 0xf8, 0x99, 0xc8, 0xa3, 0xfa,
  0xfd, 0xf5, 0xb9, 0x64, 0x10, 0x67, 0x37, 0x0a, 0xf4, 0x3c, 0xe2, 0xe4,
  0xa8, 0xe9, 0xf6, 0xe0, 0x38, 0x29, 0x76, 0xb1, 0x3b, 0xd6, 0x1d, 0xd7,
  0x87, 0x19, 0xf3, 0xe0, 0x43, 0x5f, 0xe8, 0xae, 0x32, 0x62, 0x71, 0xd7,
  0x05, 0xd5, 0xdc, 0xab, 0x53, 0x0e, 0x32, 0x43, 0xe5, 0x5d, 0xc2, 0xf5,
  0xa1, 0xb6, 0xa7, 0xb2, 0xa5, 0x69, 0xe2, 0x0a, 0xca, 0x39, 0x51, 0x4f,
  0xe4, 0xb8, 0x02, 0x1c, 0xac, 0x26, 0x26, 0xff, 0x17, 0xc3, 0xcd, 0x29,
  0x0e, 0xd4, 0xd5, 0x1a, 0xdd, 0x9e, 0x6e, 0x64, 0xee, 0xe8, 0x6f, 0x34,
  0x12, 0x48, 0x24, 0xf8, 0x66, 0xfe, 0x0b, 0x9b, 0x5b, 0x3e, 0x50, 0x97,
  0xe6, 0x2c, 0x49, 0x03, 0x5d, 0x29, 0xa0, 0x6c, 0x25, 0xc2, 0x4c, 0x13,
  0x4e, 0x36, 0x6b, 0x20, 0x5d, 0x74, 0x09, 0x59, 0x64, 0xdc, 0xaf, 0x6f,
  0xc5, 0x18, 0xae, 0x27, 0x1b, 0x5e, 0xef, 0x59, 0xcf, 0xe5, 0x95, 0xde,
  0xf6, 0xf8, 0xb9, 0x45, 0x46, 0xe6, 0x48, 0xa1, 0x08, 0xdf, 0x12, 0xd4,
  0xac, 0x1a, 0xb7, 0xa1, 0xf6, 0xbf, 0x54, 0x06, 0xfe, 0xca, 0xc6, 0x3a,
  0x09, 0x75, 0xe0, 0x99, 0xf9, 0xc9, 0xbe, 0x1b, 0x70, 0xa4, 0x27, 0x69,
  0x56, 0x49, 0xe0, 0x95, 0x72, 0x53, 0xab, 0x26, 0x0f, 0x99, 0x04, 0xce,
  0x54, 0xe0, 0xc3, 0x36, 0x1a, 0x5a, 0x42, 0x5a, 0xa2, 0x08, 0x6e, 0x39,
  0x26, 0xde, 0xa3, 0x11, 0xbc, 0x5c, 0xb3, 0x0b, 0x97, 0xf7, 0x02, 0x2a,
  0x1f, 0x45, 0xe3, 0x3b, 0xe3, 0x58, 0xb3, 0x37, 0xc0, 0xdc, 0x97, 0xc1,
  0xac, 0xf6, 0xc6, 0xde, 0xec, 0xbf, 0xc3, 0x0e, 0x9d, 0x15, 0xe7, 0x12,
  0xa3, 0x75, 0x9f, 0xeb, 0x4c, 0x3d, 0x5b, 0x08, 0x04, 0x02, 0xb8, 0x51,
  0xb1, 0x2b, 0x44, 0xf6, 0xcd, 0xe3, 0x18, 0x3c, 0xc8, 0xed, 0x30, 0x4a,
  0xdb, 0x03, 0x56, 0x48, 0xff, 0x10, 0xad, 0xf8, 0xf2, 0x04, 0xa7, 0x96,
  0xc0, 0xfc, 0x1e, 0xab, 0x1c, 0x9c, 0x04, 0x28, 0x37, 0xf8, 0x36, 0xf7,
  0xda, 0x71, 0x12, 0xa2, 0x1a, 0xb7, 0xe6, 0x9f, 0xba, 0x0a, 0x0d, 0xe8,
  0x22, 0x2e, 0x61, 0xbd, 0xfa, 0xfe, 0x4b, 0x19, 0xbe, 0xc7, 0x0a, 0x3b,
  0x0a, 0x92, 0xac, 0x55, 0x6d, 0xf6, 0x65, 0xc9, 0x1b, 0x42, 0xf8, 0x97,
  0xe4, 0x00, 0x9a, 0xa3, 0x5c, 0x5a, 0x97, 0xa5, 0x26, 0x55, 0x45, 0x44,
  0x30, 0x60, 0x34, 0x27, 0xd0, 0x61, 0xd8, 0x61, 0xad, 0x2d, 0x33, 0xb0,
  0xb3, 0xfb, 0xce, 0x16, 0x98, 0x5a, 0x14, 0xd0, 0x23, 0xb1, 0x09, 0xc4,
  0x3a, 0xd2, 0x00, 0x7e, 0x23, 0x9b, 0x8e, 0x0b, 0x9e, 0xc2, 0x35, 0xb6,
  0xb3, 0xd7, 0xfe, 0x6d, 0x7c, 0xd1, 0x6e, 0x97, 0xd7, 0xf4, 0x33, 0xac,
  0xf8, 0xdb, 0x99, 0x2a, 0xc5, 0xed, 0xc1, 0x1d, 0xb1, 0xad, 0xbf, 0x05,
  0x9a, 0xb3, 0x3e, 0x56, 0x57, 0x9a, 0x99, 0x42, 0xe7, 0x71, 0x46, 0x8f,
  0x6b, 0xf3, 0x45, 0x74, 0x14, 0xfe, 0xde, 0x61, 0xd6, 0xbb, 0x8b, 0xb0,
  0x18, 0xea, 0x04, 0x88, 0xbd, 0xfd, 0xa6, 0x46, 0xb0, 0xb2, 0x6f, 0x16,
  0x42, 0x0d, 0xf9, 0x65, 0x06, 0xe6, 0x94, 0x1d, 0x5d, 0xdb, 0x29, 0xed,
  0x9e, 0xef, 0xa1, 0xa6, 0x1b, 0xc5, 0x0b, 0xa2, 0x4c, 0x16, 0x25, 0x62,
  0x74, 0x90, 0x76, 0xa6, 0xa1, 0xd2, 0xa5, 0x1b, 0x05, 0xe3, 0x77, 0xae,
  0xc5, 0xa3, 0xf1, 0x33, 0x32, 0x72, 0xd9, 0x50, 0x74, 0x98, 0x16, 0xe5,
  0x40, 0x75, 0x3f, 0x1d, 0xa2, 0x52, 0xbf, 0x9f, 0xf2, 0x59, 0xae, 0xb0,
  0x39, 0x52, 0x01, 0x67, 0x28, 0x15, 0x70, 0x29, 0xe0, 0xb1, 0x94, 0xeb,
  0x91, 0xe8, 0x78, 0x99, 0xa9, 0x44, 0x21, 0x12, 0x19, 0x01, 0xa2, 0xe1,
  0x24, 0x23, 0x07, 0x8b, 0x57, 0x1e, 0x9b, 0x16, 0x5b, 0x41, 0x65, 0x7f,
  0xba, 0xcc, 0xf7, 0x52, 0x84, 0x47, 0x9b, 0x77, 0xd3, 0x94, 0x6d, 0x5c,
  0x86, 0x48, 0x26, 0x5c, 0x57, 0xe7, 0x79, 0xe1, 0xb6, 0x58, 0xdd, 0x09,
  0x09, 0x0f, 0x66, 0x08, 0x65, 0xbb, 0xdd, 0xaa, 0xf3, 0x14, 0xeb, 0x12,
  0x41, 0x7b, 0x7e, 0xb6, 0xd8, 0xa1, 0x5d, 0x3a, 0xb9, 0x3f, 0xff, 0xdc,
  0x12, 0xe1, 0xa6, 0xa7, 0x86, 0x83, 0x7a, 0x3b, 0x9a, 0x8b, 0x4d, 0xb8,
  0x04, 0x3f, 0x9c, 0xf9, 0x49, 0x85, 0x99, 0x77, 0x8e, 0x85, 0x7d, 0x07,
  0xab, 0xec, 0xdd, 0x73, 0xc0, 0xe4, 0x06, 0x3d, 0x3e, 0x6b, 0x69, 0xa7,
  0x69, 0x92, 0x25, 0xd8, 0x95, 0xbc, 0x19, 0xf3, 0x83, 0xc4, 0x1a, 0xa7,
  0x17, 0x0f, 0x6b, 0x0f, 0x19, 0x01, 0x28, 0xe0, 0xbb, 0xd6, 0x55, 0x79,
  0x5b, 0xaf, 0xd8, 0x2b, 0x3b, 0x5f, 0xc3, 0x8b, 0xa6, 0xaf, 0x40, 0x16,
  0x67, 0x67, 0xf4, 0x20, 0xe8, 0xb2, 0x87, 0x33, 0x0f, 0xb6, 0x20, 0x12,
  0xbf, 0xa3, 0xc2, 0xc7, 0x6a, 0xc2, 0x20, 0x76, 0x0e, 0x75, 0xd1, 0x1e,
  0x2c, 0xfb, 0xd6, 0x3d, 0x0b, 0x91, 0x53, 0xf3, 0x91, 0xfe, 0x70, 0x84,
  0x97, 0x29, 0x97, 0x01, 0xd9, 0x1f, 0xc9, 0xa8, 0xc9, 0xb7, 0x2d, 0xa2,
  0x7e, 0x3a, 0xe7, 0xf4, 0x6c, 0xe4, 0x38, 0xe1, 0x1a, 0xda, 0xd5, 0xa1,
  0x5f, 0xe4, 0xf1, 0xcf, 0x50, 0x3d, 0x02, 0xd4, 0x32, 0x19, 0xf1, 0x27,
  0xfe, 0x8b, 0xc5, 0x5f, 0x53, 0xbc, 0x0d, 0xaf, 0xc3, 0x4b, 0xef, 0xc2,
  0x41, 0x90, 0x47, 0xab, 0x92, 0x73, 0x6f, 0x73, 0xa0, 0x12, 0xc9, 0x1b,
  0x3b, 0x8e, 0x72, 0x07, 0xb3, 0x82, 0x57, 0x68, 0xa4, 0x50, 0x9d, 0x54,
  0x1e, 0xb4, 0x9d, 0x42, 0x82, 0x68, 0x78, 0x59, 0x19, 0x16, 0x60, 0x79,
  0x26, 0xc7, 0x36, 0x35, 0x7d, 0xec, 0x56, 0xa6, 0xe7, 0x1b, 0x24, 0x7b,
  0x78, 0x3d, 0x2e, 0xab, 0xdd, 0x27, 0x8c, 0x6a, 0x4e, 0x3f, 0x58, 0xac,
  0xe4, 0x63, 0xfe, 0x71, 0x73, 0x78, 0x3a, 0x00, 0xf5, 0x11, 0xd0, 0x7b,
  0x1a, 0x6c, 0xf5, 0x47, 0xb4, 0x21, 0xa6, 0xa1, 0xf0, 0xcf, 0xe2, 0x93,
  0x20, 0xc0, 0xd3, 0xf4, 0x08, 0x04, 0xa0, 0x20, 0x79, 0xa9, 0x9b, 0x29,
  0x36, 0xec, 0x04, 0x23, 0x0b, 0x76, 0xe3, 0x5a, 0xce, 0x9d, 0xf4, 0x51,
  0x01, 0x29, 0x3e, 0xf2, 0x16, 0xf0, 0x68, 0x1d, 0x8c, 0x15, 0x36, 0x62,
  0xae, 0xf2, 0x05, 0xfd, 0x7d, 0x8f, 0xbd, 0x16, 0x0d, 0x47, 0x2e, 0xe4,
  0x54, 0x35, 0x41, 0xbf, 0xef, 0xa0, 0x59, 0x16, 0x56, 0xb0, 0x6b, 0x86,
  0x60, 0x37, 0xbc, 0x37, 0x23, 0x69, 0xcc, 0x0d, 0xb3, 0xa1, 0x8b, 0xaf,
  0xa8, 0xeb, 0x00, 0xae, 0x5c, 0x70, 0xc5, 0xa5, 0x52, 0x20, 0x09, 0x63,
  0x02, 0x30, 0x16, 0x37, 0xac, 0xa9, 0xb3, 0x9f, 0xf7, 0xf4, 0xe6, 0x86,
  0x9d, 0x8f, 0x82, 0x21, 0x6f, 0xda, 0xc6, 0x7d, 0x88, 0x84, 0xca, 0xe8,
  0x19, 0x19, 0x0f, 0x57, 0xce, 0x4f, 0x02, 0xe9, 0x14, 0xf0, 0x05, 0x85,
  0x08, 0xe5, 0x15, 0xde, 0x47, 0x07, 0xaa, 0x49, 0xde, 0x0d, 0x89, 0xbf,
  0x76, 0x3f, 0x86, 0x0d, 0xd9, 0x79, 0x99, 0x4c, 0xf2, 0xbb, 0x52, 0xe3,
  0xb9, 0x4a, 0xfb, 0xdf, 0x68, 0xf7, 0x56, 0x23, 0xd6, 0xed, 0x16, 0x90,
  0xd1, 0x32, 0x09, 0x25, 0x49, 0xd1, 0x48, 0x27, 0x37, 0x37, 0x92, 0x12,
  0x7c, 0x92, 0x3b, 0x48, 0x42, 0x98, 0x05, 0xd7, 0xce, 0x34, 0x3a, 0x7a,
  0xcf, 0xac, 0xcb, 0xe7, 0x0e, 0x57, 0xd8, 0xaa, 0x61, 0x08, 0xc8, 0x3e,
  0xcc, 0xea, 0xc4, 0x47, 0x53, 0xfb, 0xdb, 0x37, 0xcd, 0x07, 0x23, 0xfd,
  0xa9, 0x95, 0xb0, 0x3c, 0x36, 0x6c, 0xbb, 0xe7, 0x2d, 0xed, 0x1d, 0xb9,
  0x98, 0x85, 0x9d, 0x76, 0x22, 0x36, 0x81, 0xb9, 0x0b, 0xd4, 0x76, 0x3c,
  0x8f, 0xf8, 0xd7, 0x28, 0xe4, 0x02, 0xc8, 0x25, 0xf4, 0x0c, 0xef, 0x9f,
  0xa6, 0x2e, 0xab, 0x10, 0x23, 0xc2, 0xdf, 0x9c, 0xe2, 0xa5, 0x74, 0xad,
  0x85, 0x21, 0x53, 0x04, 0xc7, 0xc4, 0x3b, 0xf1, 0x29, 0xc0, 0x4e, 0xa8,
  0xf7, 0xdc, 0xbf, 0xc6, 0xa4, 0xfe, 0xf2, 0x54, 0xe5, 0xf5, 0xdf, 0x2f,
  0x8a, 0xfe, 0x3f, 0x98, 0xea, 0xe1, 0x08, 0x56, 0x9d, 0x39, 0xc7, 0x4c,
  0xe6, 0x05, 0xee, 0xdb, 0xce, 0xb7, 0x84, 0xa1, 0x42, 0x15, 0x1f, 0xbb,
  0xec, 0xb7, 0x79, 0x4e, 0x2f, 0xd2, 0xab, 0x61, 0x0e, 0x21, 0x32, 0x1b,
  0x9d, 0x7e, 0xc9, 0x9f, 0xd8, 0x3e, 0x71, 0x6e, 0x82, 0x41, 0x0d, 0xc1,
  0xdb, 0x1c, 0x1a, 0xbb, 0xd6, 0x21, 0xd2, 0x1b, 0xe1, 0x0f, 0xd9, 0x84,
  0xb9, 0xa1, 0xb1, 0x81, 0x3c, 0xdf, 0x8d, 0xd1, 0x82, 0x28, 0x42, 0x0d,
  0x2f, 0x59, 0x58, 0xdc, 0xc9, 0x21, 0x5a, 0x39, 0xe7, 0x50, 0x56, 0xb0,
  0xcb, 0x13, 0xd3, 0xc8, 0xc3, 0x7e, 0x78, 0xba, 0xec, 0xef, 0x60, 0x1b,
  0xe8, 0xc7, 0x3a, 0x10, 0xbe, 0xe4, 0x31, 0xcc, 0xcc, 0x95, 0x5d, 0x5d,
  0x3d, 0x50, 0xa1, 0xfd, 0x3e, 0xb8, 0x9d, 0x52, 0x03, 0xce, 0xdb, 0x84,
  0x6e, 0x8f, 0x72, 0xd3, 0x2f, 0x4b, 0xa8, 0xe3, 0x53, 0x7c, 0x87, 0x59,
  0xc9, 0xbb, 0x98, 0x46, 0x3b, 0x93, 0x13, 0xb2, 0xc0, 0xf1, 0x55, 0x43,
  0x9b, 0x51, 0x51, 0x21, 0xb2, 0xc2, 0x7e, 0xf7, 0x59, 0xe5, 0xed, 0x76,
  0x6e, 0xfd, 0x60, 0x0f, 0x7b, 0x5d, 0x0b, 0xb5, 0x50, 0xa5, 0x7d, 0x91,
  0xf5, 0xb1, 0x63, 0xb0, 0xa0, 0xac, 0xb7, 0xbc, 0x88, 0xd7, 0x2b, 0x77,
  0xe6, 0x45, 0x15, 0x31, 0xb6, 0x90, 0xd1, 0xf6, 0xee, 0xf9, 0xca, 0x46,
  0x0e, 0x33, 0x50, 0x9e, 0x0d, 0xe3, 0xdd, 0x44, 0x65, 0x96, 0x72, 0xf4,
  0x98, 0x54, 0xe2, 0x39, 0x9e, 0x61, 0xa7, 0xfd, 0x02, 0x45, 0x65, 0xdd,
  0x4e, 0xd9, 0xea, 0xb9, 0xcb, 0xe1, 0xee, 0x8f, 0x5d, 0x6c, 0xcf, 0x27,
  0xce, 0x44, 0xf6, 0xe3, 0xd7, 0xe7, 0x44, 0x92, 0xc7, 0xb3, 0xc5, 0x94,
  0xf3, 0x08, 0x1d, 0xce, 0x8e, 0x37, 0x98, 0x4f, 0xea, 0x2f, 0x87, 0x95,
  0xb3, 0xc0, 0x4d, 0x1a, 0x4b, 0x13, 0xc8, 0x21, 0x8e, 0x60, 0xb3, 0xed,
  0x50, 0x47, 0x95, 0xf0, 0xbe, 0x24, 0x34, 0x29, 0x8a, 0x3f, 0xb5, 0x1c,
  0xe0, 0x70, 0x48, 0x63, 0xed, 0xa0, 0xc2, 0xc8, 0xae, 0x2e, 0x8e, 0xb1,
  0x12, 0xf6, 0xf1, 0xaf, 0x91, 0x42, 0xad, 0x2f, 0xb1, 0x4c, 0xed, 0xf9,
  0x61, 0xcb, 0x22, 0x11, 0xde, 0x2f, 0xef, 0xea, 0xef, 0x81, 0xf4, 0x86,
  0x41, 0x05, 0x85, 0x98, 0x91, 0x3d, 0xd1, 0xc0, 0x6b, 0xbc, 0x43, 0x3b,
  0xa4, 0x8f, 0xa5, 0x31, 0x3c, 0xa8, 0xbf, 0xa6, 0x17, 0x5c, 0xc4, 0xbc,
  0x82, 0xd7, 0xfe, 0x39, 0xeb, 0x0c, 0xa3, 0x37, 0x5a, 0xfc, 0xed, 0xf6,
  0x60, 0x66, 0x0d, 0xd9, 0x1b, 0xc8, 0x15, 0x2d, 0x10, 0x23, 0xf2, 0xaf,
  0x12, 0x24, 0xee, 0xab, 0xdc, 0xbe, 0x45, 0x54, 0x23, 0xfb, 0x4f, 0x4b,
  0xfb, 0x16, 0x6d, 0xd1, 0xb4, 0x67, 0x26, 0xd0, 0x5b, 0x08, 0x54, 0xeb,
  0xb1, 0xc1, 0x13, 0xee, 0x3c, 0xed, 0x04, 0x24, 0x1c, 0xda, 0x5e, 0x53,
  0x04, 0x1a, 0xa4, 0xaa, 0x84, 0xda, 0x4c, 0xb0, 0xec, 0x51, 0xa6, 0x8f,
  0xe6, 0xf0, 0xd1, 0x3a, 0x3a, 0x15, 0x35, 0xe4, 0xa9, 0x04, 0x66, 0xe4,
  0x1f, 0xab, 0x5b, 0xb8, 0xc7, 0xbf, 0xf7, 0x02, 0x92, 0x5c, 0x63, 0x5a,
  0x14, 0xb8, 0xfb, 0x43, 0x5f, 0x92, 0x04, 0x3f, 0xed, 0x2b, 0xc9, 0x0e,
  0x13, 0x3b, 0xaa, 0xf9, 0xb7, 0x2f, 0xa5, 0x50, 0x6e, 0x65, 0xe8, 0x48,
  0x3c, 0xae, 0x14, 0x62, 0x83, 0xa8, 0xd8, 0x9e, 0xd5, 0xac, 0x18, 0x12,
  0xd4, 0x69, 0x22, 0x21, 0xce, 0xb4, 0xed, 0x60, 0xce, 0xc1, 0x94, 0x45,
  0x83, 0x55, 0xce, 0x34, 0x62, 0x94, 0x4f, 0x1d, 0xbf, 0xd4, 0x91, 0x5e,
  0x18, 0x24, 0xbe, 0x96, 0xa9, 0x0c, 0x40, 0x31, 0x1d, 0x96, 0x54, 0x0a,
  0xc8, 0x4c, 0x87, 0xd7, 0x06, 0x86, 0x99, 0x05, 0x2f, 0x65, 0x40, 0x5d,
  0x39, 0x2f, 0x34, 0xb0, 0x4b, 0x5e, 0x1e, 0x2f, 0xcd, 0x90, 0xec, 0x5f,
  0xe8, 0x96, 0x9d, 0x1b, 0x0c, 0x41, 0x18, 0x60, 0xb5, 0x28, 0x24, 0xe8,
  0xb4, 0x46, 0xdb, 0x5d, 0x20, 0x98, 0xe1, 0x6d, 0x97, 0xaa, 0x45, 0x65,
  0x82, 0x40, 0x10, 0x11, 0xb8, 0x95, 0x33, 0xc7, 0x8e, 0x51, 0x73, 0xfc,
  0x0a, 0xa8, 0xbc, 0xe6, 0x95, 0x3a, 0xd0, 0x49, 0x4c, 0x70, 0x86, 0xe7,
  0x19, 0xcd, 0xd1, 0x56, 0x68, 0x1a, 0xd5, 0x1d, 0x57, 0x93, 0xaf, 0x42,
  0xb8, 0xdc, 0x09, 0x38, 0x00, 0x95, 0xaf, 0xaf, 0x02, 0x40, 0x90, 0xab,
  0x01, 0x8b, 0x45, 0x22, 0x23, 0x64, 0x6a, 0x13, 0x87, 0xd6, 0x3c, 0x2d,
  0xea, 0x12, 0x89, 0x48, 0x32, 0x52, 0x8b, 0x87, 0x2a, 0x82, 0x26, 0x4b,
  0x00, 0xb6, 0xc1, 0x65, 0x5c, 0xb2, 0xf6, 0x31, 0x4c, 0xf4, 0x2a, 0xfa,
  0x01, 0x1b, 0xc9, 0x97, 0x34, 0x2a, 0xe4, 0xaf, 0xb1, 0x62, 0xc0, 0xb6,
  0xb7, 0xe9, 0x35, 0x14, 0xba, 0xb1, 0x20, 0xc8, 0xca, 0x99, 0x3e, 0x00,
  0x42, 0x5e, 0x5b, 0xcf, 0x9a, 0xf4, 0x9a, 0xf8, 0xbf, 0x4b, 0xb2, 0x1d,
  0x90, 0x15, 0xfe, 0x45, 0x0c, 0xfd, 0x57, 0x08, 0x57, 0x47, 0x35, 0x66,
  0xed, 0x94, 0x2c, 0x35, 0xb1, 0xf3, 0x0f, 0xfd, 0x60, 0xb2, 0x9d, 0x4d,
  0x85, 0xd9, 0xc4, 0xb2, 0x07, 0xa0, 0x1e, 0x53, 0xe8, 0x55, 0x3f, 0x49,
  0xdc, 0xb0, 0x37, 0xb6, 0xa4, 0xe4, 0xb4, 0xbf, 0x9a, 0xab, 0x4e, 0x0e,
  0xd8, 0x60, 0x50, 0x39, 0x42, 0x08, 0x05, 0x47, 0xdb, 0x00, 0x58, 0x03,
  0x73, 0xe0, 0x76, 0xb1, 0xae, 0xcf, 0x0e, 0x16, 0x5a, 0xf7, 0xf5, 0x7f,
  0xb7, 0x44, 0xa4, 0x2a, 0x12, 0xd9, 0x50, 0x24, 0xd7, 0xcb, 0x01, 0xab,
  0xd1, 0xa1, 0xe5, 0x2a, 0x24, 0x68, 0x51, 0x23, 0x17, 0x0a, 0x5d, 0x4b,
  0x92, 0xf7, 0x4f, 0x52, 0x66, 0xee, 0xf2, 0xf0, 0x6c, 0xb0, 0x39, 0x3b,
  0x55, 0x40, 0x5b, 0xab, 0xd6, 0xde, 0x2d, 0xba, 0x55, 0x07, 0x38, 0xb9,
  0xf8, 0x2d, 0xd6, 0x77, 0x53, 0x0e, 0x2e, 0x5b, 0x0a, 0x21, 0xcb, 0x12,
  0x6f, 0x6a, 0x46, 0x43, 0xed, 0xe4, 0x89, 0x37, 0x95, 0x90, 0xa5, 0x14,
  0x09, 0xcf, 0xb8, 0x16, 0xb5, 0xf2, 0x45, 0xd6, 0xed, 0x17, 0x5c, 0x0b,
  0x29, 0x22, 0x88, 0xa6, 0x77, 0x5c, 0x00, 0x0e, 0xec, 0x08, 0x6a, 0x85,
  0x65, 0x58, 0x42, 0x52, 0x5d, 0x0c, 0x09, 0xff, 0xe8, 0xa8, 0x58, 0xa8,
  0x64, 0x2e, 0x29, 0x88, 0xa8, 0x3e, 0xb3, 0xc1, 0xa7, 0x0a, 0x2c, 0x2b,
  0x8c, 0x01, 0xe4, 0x41, 0xea, 0xca, 0x01, 0xc1, 0x22, 0x01, 0x33, 0x16,
  0x8e, 0xae, 0x5d, 0xa6, 0x2a, 0xd0, 0x06, 0x06, 0x89, 0xf7, 0xea, 0xb5,
  0xa0, 0xbc, 0x10, 0xfc, 0xfe, 0x3e, 0x4c, 0xa0, 0x6b, 0xb9, 0x97, 0xfc,
  0x09, 0xbc, 0xb8, 0xb2, 0xc7, 0xe4, 0xbc, 0x55, 0xa1, 0x1a, 0xd9, 0x8c,
  0xc5, 0xc8, 0x06, 0xef, 0xc2, 0xe5, 0x1b, 0x28, 0x45, 0xd4, 0x00, 0x67,
  0x10, 0xcc, 0x2e, 0x47, 0xa0, 0x0f, 0xed, 0xf3, 0xa7, 0xa1, 0xbc, 0xb3,
  0x0e, 0xd4, 0xb7, 0x15, 0x2c, 0xfa, 0x88, 0xe6, 0xdf, 0x02, 0x08, 0xa5,
  0x24, 0x31, 0xc7, 0x27, 0x98, 0x3d, 0x57, 0xd3, 0x24, 0x8d, 0xe3, 0xd2,
  0x0c, 0x14, 0x9e, 0x08, 0x8a, 0xd6, 0xe3, 0x12, 0xfb, 0x86, 0x8d, 0x2b,
  0x1d, 0xfe, 0xca, 0x38, 0x89, 0x95, 0x24, 0xed, 0x5d, 0x54, 0xe7, 0x36,
  0x34, 0xfe, 0xdc, 0x93, 0xd8, 0x5e, 0xbe, 0x14, 0x49, 0xcc, 0xc1, 0x4f,
  0xf7, 0xaf, 0xdb, 0x0b, 0xff, 0x49, 0x15, 0x4e, 0x0e, 0x62, 0x0c, 0x12,
  0x91, 0xda, 0x4e, 0x67, 0xa0, 0xe4, 0x05, 0x3b, 0x3e, 0x21, 0x3f, 0x19,
  0x1a, 0x16, 0x67, 0x39, 0x2c, 0xda, 0xde, 0xaf, 0x49, 0x54, 0x44, 0x3a,
  0xd8, 0xac, 0x3a, 0xd5, 0x9f, 0x0b, 0x09, 0x18, 0x87, 0x9e, 0xe9, 0xc3,
  0x56, 0x99, 0x63, 0x86, 0x4c, 0x18, 0x0d, 0xc7, 0x42, 0x44, 0x68, 0xc8,
  0xaa, 0xf2, 0x63, 0x85, 0xac, 0x37, 0x4b, 0xda, 0xc1, 0x09, 0x88, 0x12,
  0xc1, 0x53, 0x66, 0xfc, 0xd3, 0xcb, 0x9b, 0x45, 0xb7, 0x10, 0x6a, 0xaf,
  0x41, 0xa5, 0x98, 0x20, 0x44, 0x2b, 0x4d, 0xbf, 0xb7, 0x46, 0xeb, 0xa7,
  0x0c, 0xc7, 0x37, 0xeb, 0x26, 0x4f, 0x05, 0xa2, 0xaa, 0xb7, 0x62, 0xb5,
  0xb1, 0x66, 0xd5, 0x87, 0xaa, 0xc7, 0x29, 0x02, 0x04, 0x2c, 0x43, 0x41,
  0xcb, 0x3b, 0x62, 0x8e, 0x21, 0xc6, 0xe2, 0x21, 0xb8, 0x61, 0xe4, 0x8d,
  0x4a, 0x96, 0x51, 0xa8, 0x0d, 0x3f, 0x9e, 0x4c, 0xa6, 0x4a, 0x04, 0xfe,
  0x4b, 0x14, 0xa9, 0x0e, 0xea, 0x8a, 0x18, 0xfe, 0x30, 0x90, 0x64, 0x3a,
  0x56, 0xbe, 0x19, 0x1f, 0xff, 0x5e, 0x9e, 0x45, 0x91, 0x5c, 0x2f, 0x06,
  0x25, 0xdf, 0xac, 0xd8, 0x4c, 0xfc, 0x06, 0x39, 0xfd, 0x30, 0xfa, 0x42,
  0xbe, 0x56, 0xec, 0x1f, 0x69, 0x30, 0x06, 0xaf, 0x6e, 0xad, 0x4b, 0x0a,
  0x21, 0xe7, 0x64, 0x72, 0xe6, 0x7d, 0xc9, 0x42, 0xd2, 0xac, 0x5d, 0x9e,
  0x17, 0xa6, 0x4a, 0x22, 0x8d, 0x76, 0xa6, 0x7c, 0x01, 0x52, 0x6f, 0x43,
  0x38, 0xb3, 0x4b, 0xf1, 0xb1, 0x1c, 0x95, 0xa0, 0xec, 0xde, 0xf8, 0xb6,
  0x2b, 0x01, 0x99, 0x78, 0xf4, 0x01, 0xb1, 0x92, 0x6e, 0x0f, 0x17, 0xa8,
  0x13, 0xa6, 0xa9, 0xe9, 0x15, 0xd5, 0x1e, 0x8a, 0xc8, 0xd5, 0xaa, 0xe7,
  0xd2, 0x2a, 0x74, 0xea, 0x45, 0x3e, 0x75, 0x1d, 0xa8, 0xf8, 0x0a, 0xb6,
  0xbc, 0xbd, 0x92, 0x73, 0xf8, 0x3e, 0x1c, 0x1d, 0xcd, 0xb8, 0x1e, 0x8a,
  0x1b, 0x03, 0x9f, 0x67, 0x82, 0xe5, 0xd2, 0xfe, 0xff, 0x97, 0xca, 0x19,
  0x01, 0x29, 0xd3, 0x34, 0x25, 0xdb, 0xde, 0x62, 0x0c, 0xbd, 0x12, 0x45,
  0xea, 0x17, 0xe1, 0x8d, 0x87, 0x0e, 0x58, 0x29, 0xfa, 0x3b, 0xe8, 0x3b,
  0xcb, 0xeb, 0xc2, 0xfa, 0x9a, 0x61, 0xb3, 0x79, 0x50, 0x0b, 0x77, 0x0f,
  0x75, 0x6e, 0xb0, 0x93, 0x35, 0x14, 0x83, 0xfd, 0xae, 0x29, 0xbd, 0x17,
  0x58, 0x1a, 0xc0, 0x39, 0x12, 0x78, 0xfc, 0xa4, 0x19, 0xd2, 0xad, 0xfa,
  0x7b, 0xc3, 0x42, 0xdb, 0x68, 0x45, 0x45, 0x72, 0x91, 0xcf, 0x1f, 0xfc,
  0xbf, 0x9a, 0xbd, 0x32, 0xf9, 0x95, 0x3a, 0xed, 0x47, 0x96, 0x20, 0x45,
  0x52, 0x4a, 0x89, 0xb3, 0x46, 0x83, 0xb7, 0xcd, 0x5b, 0x95, 0x21, 0xab,
  0x2f, 0xbc, 0x50, 0x79, 0xb1, 0x9e, 0x70, 0x88, 0xd1, 0xa3, 0xee, 0x56,
  0xb1, 0x01, 0x68, 0x76, 0x49, 0xe7, 0xb8, 0x33, 0x15, 0xe3, 0x8d, 0x5a,
  0xaa, 0x00, 0xd2, 0xf1, 0xf4, 0xc2, 0x1a, 0xe2, 0x9c, 0xce, 0x04, 0xe5,
  0x2c, 0x7e, 0xec, 0xc5, 0x60, 0xcd, 0x28, 0x3e, 0xe4, 0xb3, 0x7e, 0xa8,
  0x51, 0x39, 0x3b, 0x54, 0x64, 0x93, 0xdc, 0x2e, 0xb0, 0xac, 0xff, 0xb4,
  0x1e, 0x4c, 0xfe, 0xd8, 0xbb, 0x16, 0x83, 0xe6, 0x9b, 0x59, 0xe9, 0xb6,
  0x1e, 0x4b, 0x18, 0xf1, 0xb0, 0xbc, 0x11, 0x11, 0xe3, 0x42, 0xda, 0x9f,
  0xbe, 0xf6, 0x4d, 0xf2, 0xb8, 0xa9, 0xde, 0x42, 0xcd, 0xb0, 0x11, 0x82,
  0x64, 0xaa, 0x60, 0x91, 0xdc, 0x6e, 0x25, 0x07, 0x66, 0xe7, 0xc1, 0x4a,
  0x7d, 0xf4, 0x5e, 0x97, 0x66, 0x3d, 0x62, 0xc3, 0x83, 0x6f, 0x19, 0x81,
  0x59, 0xca, 0x6f, 0x39, 0xc6, 0xfc, 0x95, 0x77, 0x56, 0x59, 0x05, 0x21,
  0xa5, 0xfd, 0x59, 0x04, 0x15, 0x51, 0x43, 0x38, 0xa6, 0xb4, 0x0c, 0x78,
  0x64, 0xc9, 0x69, 0x41, 0x73, 0x88, 0x62, 0xa7, 0xb5, 0x8f, 0x5a, 0x01,
  0x2c, 0x8f, 0x1a, 0x84, 0xd5, 0x88, 0x8c, 0x60, 0xbf, 0xb5, 0xfd, 0x3b,
  0xd5, 0x49, 0x7a, 0x5e, 0xa4, 0x4e, 0xab, 0xd2, 0x01, 0x29, 0x60, 0x6d,
  0xd5, 0xca, 0xaa, 0x02, 0x9f, 0x6b, 0xfb, 0xc6, 0xfb, 0xda, 0xb4, 0xcf,
  0x86, 0xdf, 0xc7, 0x2c, 0x77, 0xdf, 0x74, 0x02, 0x18, 0x74, 0x78, 0x26,
  0x10, 0x42, 0xbe, 0xa4, 0x0f, 0x32, 0xcf, 0x43, 0x8c, 0xe5, 0x6e, 0xc0,
  0xca, 0x37, 0x68, 0x88, 0xb9, 0x8d, 0x22, 0x10, 0x3b, 0x73, 0x62, 0xcb,
  0xde, 0x4f, 0x15, 0xa1, 0xd8, 0x47, 0x32, 0x96, 0xb8, 0xd7, 0x38, 0x81,
  0x5e, 0xae, 0xa2, 0xba, 0xee, 0xa2, 0xeb, 0x16, 0xec, 0xbb, 0xbb, 0x68,
  0x15, 0x3c, 0xae, 0x10, 0x63, 0x85, 0x07, 0x76, 0xd5, 0x4f, 0x4a, 0x67,
  0x7d, 0x40, 0x02, 0x0e, 0x61, 0x94, 0x20, 0xff, 0xe7, 0x4b, 0x67, 0x34,
  0xa4, 0x36, 0xb8, 0xbd, 0x2a, 0xc4, 0xda, 0xd6, 0xa9, 0x01, 0xa2, 0xfc,
  0xf5, 0xbb, 0xb1, 0x49, 0x2b, 0x83, 0xea, 0x63, 0x5a, 0xc3, 0xb2, 0x77,
  0xe6, 0xc5, 0xe3, 0xbf, 0x51, 0xf5, 0x8e, 0xd0, 0x41, 0xa7, 0x72, 0xdc,
  0x33, 0xce, 0xca, 0x33, 0x08, 0x0b, 0x55, 0xe8, 0x1c, 0xeb, 0xf6, 0xe1,
  0x3e, 0xc7, 0x0d, 0x39, 0x5a, 0xf1, 0x88, 0x58, 0x64, 0x06, 0xfc, 0x36,
  0x50, 0xdc, 0x1e, 0x88, 0xe7, 0x88, 0x9d, 0xa6, 0x3c, 0x9f, 0xe7, 0x9c,
  0x26, 0x9b, 0xa7, 0x42, 0x08, 0xca, 0x05, 0xfc, 0x69, 0xdc, 0x04, 0xd6,
  0x96, 0xf1, 0x48, 0xd6, 0x08, 0x00, 0x20, 0x34, 0x94, 0x0c, 0x48, 0xab,
  0x8a, 0x17, 0x45, 0x1b, 0x41, 0x41, 0x93, 0x39, 0xc3, 0xf2, 0xa8, 0x07,
  0xff, 0xe4, 0x68, 0xfd, 0xc0, 0xff, 0x4b, 0x2d, 0x61, 0x03, 0xa8, 0x05,
  0xf9, 0x32, 0xc9, 0xe2, 0x96, 0xc6, 0x9c, 0xcc, 0x41, 0xd8, 0xfb, 0x5e,
  0x8b, 0xe8, 0x9f, 0x36, 0x45, 0xd4, 0x35, 0x03, 0x27, 0x9a, 0x9e, 0x53,
  0xaa, 0xb0, 0xb2, 0x10, 0xab, 0x34, 0xf2, 0xa4, 0xc3, 0x95, 0x5a, 0xf2,
  0x3f, 0xa5, 0xfc, 0xc1, 0x30, 0x84, 0xff, 0x40, 0x28, 0xd4, 0xd1, 0x26,
  0xb1, 0x2d, 0xb4, 0xe9, 0xd5, 0xa2, 0x64, 0x97, 0xfc, 0xe2, 0x8b, 0x09,
  0x6a, 0xe8, 0xe4, 0x48, 0xa5, 0xa1, 0x55, 0x0e, 0x26, 0x1e, 0x53, 0xce,
  0x1b, 0x19, 0x72, 0xf8, 0xcd, 0xf9, 0xb2, 0x6f, 0xb9, 0x08, 0x2b, 0x2a,
  0x2f, 0xfe, 0xe6, 0xe4, 0xf2, 0xbe, 0x2d, 0xdc, 0xf4, 0x49, 0xf8, 0x35,
  0x5b, 0x41, 0x16, 0xee, 0xb3, 0xec, 0x2e, 0x05, 0xc7, 0xab, 0xf3, 0xc0,
  0x03, 0x3c, 0x2a, 0xe8, 0xde, 0x59, 0xca, 0xc0, 0xbb, 0xda, 0xcc, 0x53,
  0x5c, 0xc2, 0x37, 0x52, 0xd6, 0x42, 0x4c, 0x06, 0xf8, 0x98, 0x70, 0xb0,
  0x29, 0x36, 0x8d, 0xeb, 0x40, 0x06, 0x27, 0xad, 0x04, 0xe1, 0x54, 0x34,
  0x70, 0x42, 0xc3, 0xa7, 0x88, 0xde, 0x1e, 0xb4, 0x60, 0xce, 0xfb, 0xbe,
  0x1c, 0x97, 0xaf, 0xa1, 0xb9, 0x3f, 0x05, 0xed, 0x69, 0x99, 0x5a, 0x92,
  0x66, 0xde, 0x5d, 0x3f, 0x30, 0x81, 0x5b, 0x4f, 0xf7, 0x1f, 0xe3, 0xff,
  0xc6, 0x3f, 0x94, 0x0f, 0xc4, 0xc7, 0x05, 0xff, 0x06, 0x84, 0x64, 0x6d,
  0x25, 0x9b, 0xb6, 0xbb, 0x31, 0xdf, 0xa4, 0x2e, 0x89, 0x45, 0x48, 0x7b,
  0xaa, 0x12, 0xcc, 0xdf, 0xa2, 0xb3, 0x04, 0xd4, 0x49, 0x63, 0x3e, 0x1e,
  0x62, 0x17, 0x53, 0x6b, 0x66, 0xe1, 0xc6, 0x9f, 0xb0, 0x36, 0xf5, 0xee,
  0x2c, 0xe6, 0x9c, 0xcc, 0xe9, 0xab, 0xe6, 0x1d, 0x13, 0x00, 0x4b, 0xbb,
  0xe1, 0x5c, 0x11, 0xbe, 0xaf, 0x86, 0x73, 0x56, 0x93, 0xe7, 0x21, 0x86,
  0x0f, 0xbf, 0x2f, 0xa6, 0x02, 0x4e, 0x1a, 0x1e, 0xe1, 0xb7, 0xeb, 0xcc,
  0x44, 0x9f, 0xc4, 0x12, 0xcb, 0x92, 0xff, 0x82, 0xe8, 0x00, 0xa8, 0x4e,
  0xd5, 0x1d, 0xfe, 0x83, 0x84, 0x6c, 0xd3, 0xdf, 0xad, 0x91, 0x04, 0x57,
  0xc8, 0x5a, 0xf1, 0xff, 0x65, 0x53, 0x2d, 0xc8, 0x2a, 0x20, 0x5b, 0x04,
  0x98, 0x6b, 0x29, 0x98, 0x47, 0x8a, 0xe0, 0x58, 0x14, 0xd4, 0x3f, 0xdf,
  0xb6, 0xb8, 0x9c, 0x70, 0xae, 0x38, 0x40, 0x9d, 0x44, 0x3a, 0x3a, 0xb5,
  0xb3, 0xbe, 0xf6, 0x61, 0x6a, 0x6b, 0x69, 0xda, 0x24, 0x2b, 0x9b, 0x57,
  0x04, 0xc3, 0x6c, 0x52, 0xff, 0xf2, 0x14, 0x64, 0xd4, 0x6e, 0x97, 0xe6,
  0x3b, 0x92, 0x2f, 0x29, 0x90, 0xcd, 0x27, 0x50, 0xe2, 0x9b, 0xe3, 0x5a,
  0x32, 0x8d, 0x3d, 0x3c, 0xe0, 0x50, 0xcf, 0xe0, 0xec, 0x35, 0x22, 0xf5,
  0xc0, 0x4e, 0x60, 0x47, 0xe3, 0xc1, 0x31, 0xb0, 0x15, 0x2f, 0xb2, 0x43,
  0x4d, 0x0d, 0xe8, 0x32, 0xa0, 0x06, 0xe4, 0x2d, 0x9f, 0xf8, 0x12, 0xd7,
  0xf3, 0xdb, 0xdb, 0xbc, 0xaa, 0x2f, 0xb1, 0xaa, 0x36, 0xf1, 0x58, 0x1e,
  0x25, 0xc1, 0x1f, 0xe7, 0x51, 0x03, 0x47, 0xde, 0xaa, 0x25, 0xb2, 0xea,
  0x35, 0xfa, 0x06, 0x3c, 0x32, 0x55, 0x40, 0x54, 0x27, 0xc8, 0xd7, 0x47,
  0xf9, 0xe8, 0xa6, 0x92, 0x2d, 0x27, 0xb9, 0xec, 0xe7, 0x4b, 0xdc, 0x2f,
  0xbb, 0xe6, 0x26, 0xd6, 0xfe, 0xc2, 0x4f, 0xea, 0x20, 0xdc, 0xc3, 0xb6,
  0x5b, 0x40, 0x0e, 0xa4, 0x4a, 0x0a, 0xb2, 0xe2, 0x1a, 0xa2, 0x81, 0xa1,
  0x31, 0xa9, 0xce, 0xae, 0xb5, 0x07, 0xed, 0x49, 0x00, 0x67, 0xb1, 0x92,
  0x69, 0x1e, 0x32, 0xa1, 0x35, 0xb4, 0x53, 0xc9, 0xf4, 0x44, 0x53, 0xd9,
  0xbc, 0xc6, 0xcc, 0xa9, 0xe0, 0xc4, 0x59, 0x37, 0xe1, 0x36, 0xc0, 0xa9,
  0xf7, 0x46, 0x41, 0xba, 0x97, 0xb3, 0xfc, 0xab, 0xb8, 0xac, 0xae, 0xa3,
  0x0d, 0x3f, 0x1d, 0x14, 0xe8, 0xe1, 0x49, 0x1c, 0x38, 0x55, 0xb2, 0xe4,
  0x32, 0x1b, 0x46, 0xb4, 0xbd, 0xf1, 0xe5, 0x35, 0xc0, 0x16, 0xab, 0x52,
  0x33, 0x4f, 0xf5, 0x15, 0x38, 0xe2, 0xb0, 0x53, 0xd9, 0xa1, 0xa8, 0xb4,
  0x38, 0x51, 0x52, 0x4a, 0xfc, 0x69, 0xc2, 0x37, 0x21, 0x64, 0x01, 0x35,
  0xaf, 0x11, 0xff, 0x95, 0x96, 0x09, 0x0e, 0x47, 0xa2, 0xcd, 0xc5, 0xaa,
  0x19, 0xf3, 0xcd, 0x67, 0x13, 0x49, 0x54, 0xac, 0xed, 0x9f, 0xbd, 0x62,
  0x0b, 0x06, 0x37, 0xd5, 0xb6, 0x37, 0xd3, 0x01, 0xbe, 0x64, 0x2d, 0x28,
  0x2a, 0xd0, 0xa8, 0x4c, 0x26, 0x09, 0x4c, 0xcd, 0xe0, 0x99, 0x17, 0x95,
  0x55, 0xf4, 0xf1, 0xbd, 0x52, 0xef, 0xe9, 0xb9, 0x14, 0xde, 0xce, 0x3d,
  0xa8, 0xc6, 0xa7, 0x0a, 0xf7, 0xe0, 0xd1, 0x43, 0xc7, 0x5b, 0x9d, 0x53,
  0x15, 0x1e, 0x00, 0xbd, 0xb0, 0x4f, 0xf7, 0xe1, 0xff, 0x65, 0x01, 0xba,
  0x0e, 0x44, 0x58, 0x47, 0xa0, 0xbc, 0x20, 0x33, 0xc3, 0xd5, 0xe9, 0xb6,
  0xb1, 0xbe, 0x95, 0x1e, 0x0b, 0x38, 0xd3, 0xdd, 0x2e, 0x01, 0x9e, 0xfa,
  0xf4, 0xa4, 0x26, 0x08, 0x31, 0xf9, 0x6f, 0x3e, 0xf8, 0x2a, 0xad, 0x1b,
  0x58, 0xc3, 0xe7, 0xda, 0xc5, 0xcb, 0x57, 0x97, 0x43, 0xf4, 0x3f, 0xc5,
  0x5f, 0x40, 0x20, 0x40, 0x10, 0x2b, 0xc2, 0xf5, 0xcd, 0x62, 0x94, 0x2b,
  0x41, 0xe6, 0xd6, 0x3e, 0xf3, 0x2b, 0xb4, 0xf9, 0x58, 0x4e, 0x60, 0x35,
  0x07, 0x3f, 0x68, 0xb0, 0x38, 0x41, 0x1d, 0xe1, 0xa2, 0x15, 0x45, 0x5d,
  0x62, 0x2e, 0x5a, 0xb2, 0x61, 0xd9, 0xca, 0x95, 0xff, 0xc0, 0xc8, 0x2d,
  0xa8, 0x4c, 0x0f, 0x2e, 0x17, 0xb7, 0x62, 0x90, 0xfe, 0x08, 0xf9, 0x8a,
  0xb7, 0xf4, 0x46, 0xea, 0x05, 0x24, 0xf4, 0xea, 0x6b, 0xc3, 0x09, 0xf0,
  0x8e, 0xba, 0xcf, 0xe7, 0xe8, 0x5d, 0x2d, 0x9e, 0x3c, 0x47, 0x4d, 0xd1,
  0x04, 0xc4, 0xce, 0xcd, 0xdf, 0xe0, 0x45, 0x20, 0xa3, 0x27, 0x18, 0xb2,
  0xa9, 0x19, 0xff, 0x63, 0xe6, 0xca, 0x23, 0x0b, 0x47, 0xd5, 0xf0, 0x5e,
  0x9b, 0xff, 0xf2, 0xa4, 0x20, 0x29, 0xcf, 0xde, 0xbc, 0xb3, 0x22, 0x01,
  0xd3, 0xee, 0x2f, 0x5c, 0x19, 0xc5, 0xf3, 0x56, 0x93, 0x37, 0xe7, 0x44,
  0xf5, 0x44, 0x25, 0x09, 0xf2, 0xb1, 0x26, 0xb3, 0xf9, 0xc1, 0x52, 0x3e,
  0x95, 0x9c, 0xdc, 0xa5, 0x04, 0xc5, 0x9b, 0xe9, 0xd0, 0xdd, 0xad, 0xba,
  0xda, 0xb6, 0x43, 0x6d, 0x00, 0x4c, 0x2c, 0x42, 0x02, 0x4f, 0xd8, 0x5f,
  0x95, 0x49, 0x5a, 0x2d, 0x21, 0x9a, 0x79, 0x75, 0xe0, 0xf7, 0x94, 0xe6,
  0xe1, 0x4f, 0xe9, 0xbd, 0x43, 0xb2, 0x6e, 0xed, 0xbe, 0x82, 0x45, 0x17,
  0x2d, 0x3c, 0x9f, 0x8f, 0xb2, 0xc6, 0x45, 0x29, 0xec, 0x01, 0x13, 0xbb,
  0xa7, 0x9d, 0x7c, 0xd0, 0x92, 0x5e, 0x88, 0xd3, 0xde, 0x9a, 0x3e, 0x05,
  0xa6, 0x36, 0x52, 0xb0, 0x39, 0xf4, 0x4b, 0xa3, 0x57, 0x07, 0xfd, 0xa2,
  0x79, 0x14, 0x27, 0x99, 0x73, 0x86, 0x73, 0xc9, 0x49, 0x5b, 0x90, 0x59,
  0x39, 0x05, 0xc5, 0xb5, 0x45, 0x33, 0xdd, 0x46, 0x67, 0x94, 0xb8, 0x19,
  0x7e, 0x24, 0xa4, 0x9a, 0x34, 0x7c, 0x1a, 0x81, 0xcc, 0xf1, 0xed, 0xa6,
  0xcb, 0x08, 0xe4, 0x3a, 0x21, 0x67, 0x3f, 0xfd, 0xa2, 0xa4, 0x8d, 0x40,
  0x7d, 0x3f, 0xb6, 0x4e, 0xf9, 0x2a, 0x63, 0xc8, 0x6f, 0x17, 0x3d, 0xc5,
  0xbd, 0x1f, 0x7a, 0x30, 0xc3, 0xbc, 0xfa, 0x54, 0xee, 0x70, 0x4d, 0x41,
  0xa5, 0x7b, 0x3e, 0x95, 0x1e, 0xc4, 0x8b, 0xd9, 0x11, 0xb4, 0x08, 0x06,
  0x23, 0x02, 0xad, 0x35, 0x16, 0xc0, 0xa5, 0xdc, 0x76, 0xfc, 0x6d, 0xd2,
  0x93, 0x95, 0xe7, 0x3b, 0x31, 0xe5, 0x57, 0x8d, 0x47, 0xa0, 0x68, 0xab,
  0x43, 0xe4, 0x84, 0xe4, 0xd6, 0xc6, 0x4a, 0x58, 0x2b, 0xdf, 0x14, 0x01,
  0xe1, 0xf6, 0x25, 0xa5, 0x8d, 0x26, 0x03, 0x1f, 0xb8, 0xe7, 0x83, 0xe2,
  0x79, 0xa6, 0x47, 0x41, 0x31, 0x63, 0x9c, 0x8d, 0xff, 0x8b, 0x30, 0x2c,
  0x7e, 0x0b, 0x5b, 0xbd, 0x7d, 0x3c, 0x91, 0xc3, 0x02, 0xc2, 0x48, 0xb4,
  0x61, 0x3c, 0xb6, 0x50, 0x85, 0x69, 0xa2, 0xdf, 0x2a, 0xab, 0xd6, 0x41,
  0x4d, 0x02, 0x2e, 0x94, 0x60, 0xb3, 0xb1, 0xee, 0xaa, 0x95, 0x63, 0xad,
  0xfd, 0x66, 0xf2, 0xfd, 0x9c, 0x79, 0xe1, 0xf7, 0x89, 0xe6, 0x11, 0xfc,
  0xbb, 0x7f, 0x30, 0xd6, 0xea, 0x14, 0x37, 0x1f, 0x24, 0x2a, 0x92, 0x32,
  0x90, 0xb6, 0xb4, 0x58, 0xa6, 0x47, 0x8c, 0xe0, 0xa2, 0xdf, 0xfb, 0x9d,
  0x88, 0xe4, 0xf7, 0x8c, 0xdb, 0xec, 0xed, 0xc5, 0x09, 0x79, 0xe0, 0x56,
  0x78, 0x6a, 0x2c, 0x9d, 0x87, 0xeb, 0x4e, 0xda, 0x61, 0x10, 0xdf, 0x7a,
  0x9b, 0xc0, 0x84, 0x27, 0xf4, 0xf9, 0x4e, 0x90, 0x37, 0xf1, 0x27, 0xe1,
  0xd7, 0x45, 0xb6, 0xd6, 0x03, 0xbb, 0xa0, 0x7c, 0xed, 0x7d, 0x0f, 0xc8,
  0xe2, 0x23, 0xbd, 0x73, 0xa8, 0x36, 0x77, 0xe8, 0x38, 0x1b, 0x9b, 0x60,
  0x44, 0xe4, 0xf2, 0xfd, 0xf2, 0x11, 0xa6, 0x98, 0xe4, 0x0a, 0x58, 0x63,
  0x10, 0x31, 0x38, 0xc4, 0x97, 0xbd, 0x86, 0xd2, 0xf9, 0xbe, 0xdb, 0x4b,
  0x03, 0x0b, 0x71, 0x1a, 0x36, 0x8e, 0x9a, 0xdb, 0xa3, 0xcd, 0x00, 0xff,
  0x31, 0xa2, 0x56, 0xcf, 0xc4, 0xd0, 0x19, 0xcd, 0xb8, 0x21, 0xa4, 0x32,
  0xbf, 0xb2, 0x06, 0x58, 0x81, 0xb9, 0xfd, 0x69, 0xba, 0xac, 0x75, 0x54,
  0xd2, 0x29, 0xfd, 0x23, 0x0d, 0x47, 0xec, 0x5d, 0x79, 0xf7, 0xb5, 0xfe,
  0x58, 0x7e, 0xd7, 0x37, 0xf5, 0x58, 0x2b, 0x5f, 0x20, 0x00, 0x74, 0xb6,
  0x84, 0x27, 0xe1, 0x6e, 0x4f, 0x6f, 0x6a, 0x15, 0xb4, 0x2b, 0xaa, 0x77,
  0xe6, 0xb5, 0xb2, 0x94, 0xa7, 0xeb, 0xe3, 0xc7, 0x4f, 0x01, 0xc1, 0x73,
  0x0e, 0x32, 0x3b, 0x6b, 0x58, 0x18, 0x03, 0x90, 0x62, 0xa0, 0x48, 0xfc,
  0xd4, 0x64, 0x50, 0xf3, 0x37, 0xa7, 0x10, 0xa2, 0x3b, 0xaf, 0x1a, 0xfb,
  0x8e, 0x51, 0x69, 0x96, 0x46, 0xb1, 0x68, 0xe5, 0x69, 0xf7, 0x98, 0xd2,
  0xb3, 0xe1, 0x8d, 0x4d, 0x12, 0x90, 0x1a, 0x06, 0xa6, 0x19, 0xea, 0x22,
  0x57, 0xae, 0xe9, 0xe9, 0xba, 0xce, 0xb3, 0x17, 0x03, 0xd2, 0x1f, 0xfb,
  0x54, 0xbd, 0x33, 0x48, 0xac, 0x11, 0xdb, 0x23, 0x64, 0xb5, 0xfa, 0xe1,
  0x08, 0xc2, 0xad, 0x52, 0x39, 0x64, 0xc5, 0xb4, 0x38, 0x1c, 0x00, 0x08,
  0x53, 0x21, 0xfb, 0x4f, 0x49, 0x10, 0x83, 0x4a, 0xa7, 0x0a, 0xbe, 0x24,
  0xa3, 0xb5, 0xd4, 0xf1, 0xf6, 0xd9, 0xdc, 0x94, 0xbc, 0x0e, 0xad, 0x90,
  0x01, 0xcb, 0x47, 0x4a, 0x3c, 0xfd, 0xc5, 0x0e, 0x2c, 0xdb, 0xa0, 0x81,
  0x50, 0x09, 0xba, 0xfb, 0xb0, 0xd1, 0xd8, 0xf0, 0x3c, 0x2b, 0x48, 0x9e,
  0x91, 0xfa, 0x17, 0x5d, 0xd3, 0x42, 0xac, 0xef, 0x3a, 0x53, 0xb5, 0xa8,
  0x99, 0x5d, 0x96, 0x46, 0xd9, 0x1b, 0x29, 0x94, 0x3a, 0x06, 0x9c, 0x3e,
  0x3f, 0xf3, 0xe9, 0x00, 0xda, 0xb8, 0x58, 0xf8, 0x01, 0x26, 0xc3, 0x0d,
  0x58, 0xd0, 0x57, 0x41, 0xd8, 0xbe, 0xed, 0x8f, 0x05, 0xba, 0x14, 0xe7,
  0xc9, 0xad, 0xcd, 0xd5, 0x2c, 0x3e, 0x6f, 0xdd, 0x2f, 0x1f, 0xaa, 0xed,
  0xbd, 0x3d, 0x4a, 0x46, 0x21, 0xb8, 0x58, 0x28, 0x05, 0xc7, 0x0c, 0x3f,
  0xdd, 0x1f, 0xdc, 0x8d, 0x17, 0xa8, 0x0e, 0xe4, 0xb5, 0x3e, 0x14, 0x36,
  0xe7, 0x9b, 0x81, 0x2f, 0x0d, 0x9d, 0x5a, 0x93, 0x4b, 0xa6, 0xc4, 0x52,
  0x4d, 0xf1, 0xd5, 0xe6, 0x31, 0x03, 0xce, 0xb9, 0x6f, 0x01, 0xf9, 0x1c,
  0x40, 0x62, 0x38, 0x33, 0x3d, 0xd3, 0x4d, 0xf0, 0x2e, 0xfc, 0xa7, 0x05,
  0x87, 0x8c, 0x2f, 0x52, 0xe6, 0xbd, 0x62, 0xd1, 0x01, 0x01, 0x4c, 0x0a,
  0x12, 0xb9, 0xe9, 0x43, 0xa3, 0xc6, 0x4f, 0xd7, 0xf2, 0xbd, 0xa1, 0xab,
  0xeb, 0xc7, 0x87, 0x5f, 0xfd, 0xaa, 0x22, 0x2a, 0x63, 0xdb, 0xfe, 0x31,
  0xe0, 0x29, 0x40, 0x2a, 0x31, 0x48, 0x1f, 0xe8, 0xf4, 0x1f, 0xda, 0x1b,
  0x52, 0x1e, 0xfb, 0x13, 0x04, 0x90, 0x61, 0xbe, 0x4a, 0x3d, 0x16, 0x11,
  0x07, 0xdb, 0xb2, 0x25, 0x9b, 0x2a, 0xc9, 0x88, 0xc9, 0x20, 0xc6, 0x0d,
  0x92, 0xe0, 0x1c, 0xa3, 0xf5, 0x37, 0x04, 0x6a, 0xee, 0x56, 0x64, 0x68,
  0xb5, 0x99, 0x1b, 0xc5, 0x23, 0x1a, 0xad, 0xf5, 0x01, 0x1a, 0x8e, 0xdd,
  0x65, 0x00, 0x96, 0x93, 0x3b, 0x36, 0xdc, 0x3c, 0x5c, 0x9e, 0x57, 0x04,
  0xec, 0x37, 0x10, 0xa2, 0x53, 0x01, 0x15, 0xf5, 0x48, 0x68, 0x2f, 0x94,
  0xb2, 0x0b, 0x1f, 0xdf, 0xce, 0xe2, 0x69, 0x1e, 0xa1, 0xb8, 0xb1, 0xbc,
  0xf7, 0xe8, 0xbe, 0x5e, 0x45, 0x37, 0xe8, 0x52, 0x4e, 0x26, 0x1a, 0x07,
  0xa4, 0xfd, 0x32, 0x84, 0xe5, 0x95, 0x13, 0x8e, 0x92, 0x4c, 0x0f, 0x5d,
  0x26, 0x21, 0x3c, 0x26, 0x2a, 0x0c, 0xe5, 0x45, 0x35, 0x0b, 0x26, 0x09,
  0x1a, 0xc3, 0x16, 0xa8, 0xa5, 0x9e, 0x25, 0x59, 0x0a, 0x59, 0xa5, 0x30,
  0x60, 0x5e, 0x62, 0x8c, 0x9f, 0x43, 0x3b, 0xa1, 0xfb, 0x65, 0xe0, 0xa6,
  0xee, 0x1d, 0x35, 0xaa, 0x5e, 0xea, 0xbf, 0x07, 0x38, 0x58, 0xa4, 0xfe,
  0x58, 0x28, 0x35, 0xca, 0x4d, 0xb2, 0xfc, 0x16, 0x18, 0x31, 0xea, 0x19,
  0xd2, 0xc7, 0xb8, 0x2f, 0xf3, 0x59, 0x44, 0xb3, 0x1d, 0x53, 0xc1, 0x0e,
  0x2f, 0x6b, 0xda, 0xbc, 0xd6, 0xac, 0x9a, 0xb1, 0xb8, 0x56, 0x6a, 0x08,
  0x29, 0xd7, 0x2a, 0x35, 0x4e, 0x3e, 0x34, 0x3f, 0x9e, 0x05, 0xb3, 0x63,
  0x01, 0xef, 0xed, 0x29, 0xb9, 0xe9, 0xa5, 0x1e, 0x33, 0xf4, 0xc8, 0x21,
  0x8d, 0x43, 0x32, 0x42, 0x00, 0xc7, 0x06, 0xb3, 0xba, 0x3b, 0xf6, 0xde,
  0xf4, 0xab, 0x9b, 0x44, 0x4b, 0xb4, 0xee, 0xee, 0xd1, 0xff, 0xd7, 0xa2,
  0x14, 0x31, 0xdc, 0x48, 0xbd, 0xef, 0x32, 0xb6, 0x3f, 0x48, 0x3c, 0xa7,
  0xd5, 0xbc, 0xf5, 0x6f, 0xd6, 0xcb, 0x9f, 0x01, 0xea, 0x9c, 0x32, 0x23,
  0xad, 0xa1, 0x3e, 0x62, 0x96, 0x64, 0xe6, 0xbb, 0xf2, 0x3f, 0x38, 0xce,
  0xf9, 0x5f, 0x9b, 0x3f, 0x4d, 0xcf, 0xa4, 0xf3, 0x59, 0x5e, 0xb9, 0x36,
  0x26, 0xb8, 0xe3, 0xa3, 0xfe, 0x67, 0x43, 0x17, 0x33, 0xfa, 0x5f, 0x14,
  0xd9, 0xf3, 0x38, 0x32, 0x4c, 0x27, 0x1b, 0x00, 0xdc, 0x56, 0x21, 0x9c,
  0x15, 0x5a, 0x20, 0x08, 0xbc, 0xd8, 0x98, 0x00, 0x7b, 0xeb, 0x3d, 0xb0,
  0x67, 0x07, 0xa0, 0xd9, 0xee, 0x22, 0xb1, 0xee, 0xf1, 0x10, 0xd5, 0x2c,
  0x33, 0x2e, 0xf3, 0xdf, 0xb8, 0x2e, 0x25, 0x0f, 0x1e, 0xa8, 0x3b, 0x36,
  0x11, 0x67, 0xb3, 0x92, 0xea, 0x19, 0x58, 0x66, 0x27, 0xba, 0x23, 0xb1,
  0x0a, 0x1c, 0xc3, 0xf0, 0xf0, 0x28, 0xb3, 0x73, 0xc2, 0x67, 0xf1, 0xc8,
  0xf0, 0x63, 0xc6, 0xb5, 0x15, 0x31, 0xfc, 0xd3, 0x9d, 0xff, 0xe9, 0x00,
  0x15, 0xb9, 0xaf, 0xfd, 0xe3, 0x07, 0x69, 0x98, 0xe8, 0x9f, 0x75, 0xf5,
  0x46, 0x11, 0x3f, 0xa4, 0xff, 0x59, 0x68, 0x09, 0x1e, 0x8d, 0x98, 0x16,
  0xca, 0xca, 0x32, 0x02, 0x22, 0xfb, 0x7f, 0x7b, 0x2d, 0xa0, 0x65, 0xd1,
  0x61, 0xbe, 0x1f, 0x0f, 0xe9, 0x37, 0x04, 0xdd, 0x20, 0x17, 0xd0, 0xf4,
  0x1b, 0x36, 0x1a, 0xa0, 0xdc, 0x08, 0xb4, 0xd7, 0xc7, 0xfd, 0x2e, 0xed,
  0xf2, 0x2d, 0xe9, 0x4c, 0x33, 0x69, 0x2d, 0xe7, 0xaf, 0x24, 0x64, 0xcc,
  0x38, 0xa0, 0x79, 0x45, 0xd6, 0xb9, 0x34, 0x56, 0x1a, 0x23, 0xc5, 0xe8,
  0x5b, 0xcf, 0x67, 0x10, 0x13, 0xe5, 0x64, 0x06, 0x9c, 0x67, 0x34, 0xcd,
  0xf0, 0x11, 0xc9, 0x61, 0x35, 0x43, 0xc8, 0xbf, 0x91, 0xf8, 0x38, 0x75,
  0xd2, 0xfd, 0x70, 0x75, 0xb3, 0x11, 0x29, 0x00, 0x3e, 0xff, 0xd2, 0x1a,
  0x99, 0x46, 0x09, 0xe0, 0x2c, 0x4b, 0x2a, 0xdf, 0xc4, 0x41, 0x26, 0xd7,
  0xf2, 0xf4, 0xe7, 0x3e, 0xa3, 0xfe, 0x0c, 0x2e, 0xeb, 0x1b, 0x42, 0x47,
  0xe5, 0xa0, 0xb7, 0xff, 0xcb, 0xa4, 0x54, 0xba, 0x0a, 0x47, 0x16, 0x57,
  0xb9, 0xb9, 0xf9, 0x38, 0x4e, 0x5a, 0xbc, 0xf5, 0x74, 0x42, 0xd5, 0xd7,
  0xf5, 0x39, 0x66, 0xb8, 0xa0, 0xbf, 0x68, 0xbf, 0xc1, 0x65, 0xd2, 0xeb,
  0x62, 0x8c, 0x29, 0xd3, 0xe5, 0xad, 0xbc, 0xa7, 0xf7, 0x9b, 0x76, 0xd5,
  0x32, 0x58, 0x67, 0x1e, 0x9a, 0x11, 0xd4, 0xb4, 0x4b, 0x9c, 0x05, 0x02,
  0xb2, 0x25, 0x3b, 0xcb, 0x14, 0xad, 0xa4, 0xc8, 0xd5, 0xd6, 0xd8, 0x3e,
  0xe3, 0xbb, 0x67, 0x50, 0x59, 0x67, 0x4c, 0x94, 0xf7, 0xe0, 0xeb, 0xfc,
  0xbc, 0x3f, 0xe4, 0x47, 0xca, 0x9b, 0xe5, 0x1e, 0xaa, 0xbb, 0x29, 0x06,
  0x70, 0x0d, 0xf8, 0x16, 0x08, 0xfd, 0x62, 0xa7, 0x32, 0xaa, 0x0f, 0x43,
  0x96, 0xf9, 0xd5, 0x35, 0xe8, 0x1b, 0x70, 0x13, 0x0b, 0xc0, 0x52, 0x4b,
  0x70, 0x32, 0x57, 0x6b, 0xf0, 0x68, 0x5c, 0x23, 0xcc, 0xa7, 0xf2, 0x36,
  0xa1, 0x5f, 0xb6, 0x39, 0xa5, 0xee, 0xd9, 0xbd, 0x27, 0x71, 0x62, 0xb8,
  0xe2, 0x44, 0xc6, 0xe1, 0x2c, 0x05, 0xf0, 0x35, 0xf2, 0x58, 0x43, 0x36,
  0x62, 0xff, 0xfe, 0x61, 0x9a, 0xf2, 0x68, 0xea, 0xa7, 0x1c, 0xee, 0x0a,
  0xc9, 0x96, 0xba, 0x09, 0x3e, 0xa0, 0xd3, 0xe7, 0xd7, 0x25, 0x4f, 0xe9,
  0x03, 0x95, 0x42, 0xe5, 0x9e, 0x9b, 0x0b, 0x57, 0xd7, 0x08, 0xfb, 0xc2,
  0xc0, 0x9d, 0x32, 0xb8, 0x96, 0x42, 0x25, 0xca, 0xcc, 0x37, 0x63, 0xe9,
  0x99, 0xe1, 0xae, 0x0e, 0x36, 0xfe, 0x1c, 0x54, 0x09, 0x08, 0x19, 0xff,
  0x4f, 0xa4, 0xf2, 0xbc, 0xf8, 0x1e, 0xbf, 0x2c, 0x93, 0x17, 0x4e, 0xf6,
  0x2a, 0xe8, 0x66, 0xa6, 0xc1, 0x28, 0x17, 0x2d, 0xf4, 0xbd, 0x3c, 0xaa,
  0xd1, 0x12, 0xc9, 0x5e, 0x60, 0x3b, 0x3f, 0xe4, 0xd1, 0x23, 0xd4, 0x8d,
  0x4b, 0x0e, 0x15, 0x1b, 0xde, 0x25, 0x59, 0x66, 0x5d, 0xe7, 0xeb, 0x98,
  0x16, 0x45, 0xec, 0x2a, 0xdf, 0xa1, 0x14, 0xdf, 0x3d, 0xc3, 0x66, 0xf2,
  0x0a, 0xa8, 0x11, 0xed, 0x44, 0x09, 0xc7, 0xb7, 0xb2, 0x0a, 0xd3, 0xb4,
  0x2a, 0xc0, 0xe5, 0xe7, 0xc1, 0x28, 0xeb, 0x03, 0x55, 0x46, 0x2a, 0x45,
  0x3b, 0x49, 0x06, 0x3d, 0x1d, 0xa7, 0x28, 0xba, 0x02, 0x63, 0xc1, 0x13,
  0xfe, 0xe1, 0x97, 0x1d, 0xf7, 0x49, 0x2b, 0x1e, 0x45, 0x1a, 0xa5, 0x4f,
  0xa0, 0xc4, 0x45, 0xe4, 0xa6, 0xca, 0xd4, 0xc3, 0xc1, 0x41, 0x2e, 0xd4,
  0xc9, 0x25, 0xde, 0x33, 0x56, 0x60, 0x31, 0xcd, 0xb0, 0xda, 0xd7, 0xf4,
  0x22, 0xe9, 0x37, 0x5a, 0xfa, 0xa1, 0x02, 0x34, 0x4a, 0xd3, 0xe9, 0xed,
  0xcc, 0x4f, 0x56, 0xec, 0xf5, 0xbf, 0x48, 0xc7, 0xf8, 0xff, 0xca, 0xd1,
  0xe7, 0x3f, 0xfa, 0x59, 0xed, 0x98, 0xb9, 0xbd, 0x04, 0x1f, 0xce, 0x39,
  0x65, 0x25, 0x16, 0xc9, 0x64, 0xaa, 0xb7, 0x61, 0xe0, 0x19, 0xc7, 0x8b,
  0x04, 0x1b, 0x64, 0x27, 0x5f, 0x48, 0x13, 0xaa, 0x9b, 0xfb, 0x22, 0x50,
  0xa6, 0x0a, 0xda, 0x46, 0x27, 0x49, 0x9e, 0xe6, 0xce, 0xc2, 0x25, 0xfc,
  0x0f, 0x06, 0x19, 0x2e, 0xf1, 0x3e, 0xd1, 0x18, 0x43, 0x9e, 0xad, 0x1f,
  0x64, 0xa3, 0x34, 0x58, 0x0c, 0xd3, 0x02, 0x20, 0x9b, 0x54, 0x0d, 0x24,
  0xaf, 0xfe, 0xab, 0xc2, 0x3a, 0xe3, 0xe0, 0x20, 0x2b, 0x96, 0xd1, 0xce,
  0xd3, 0x9c, 0xdc, 0x42, 0x5e, 0x57, 0x18, 0x37, 0x2d, 0xcc, 0x23, 0xbb,
  0x40, 0x36, 0xd2, 0xe9, 0x50, 0xff, 0xe5, 0xf5, 0x26, 0xe2, 0x4a, 0x64,
  0xaf, 0x99, 0xb7, 0xe3, 0x2c, 0xe9, 0x4c, 0x02, 0x53, 0x58, 0x81, 0x14,
  0xdc, 0x61, 0x34, 0xda, 0xda, 0xc6, 0x1c, 0xe8, 0x99, 0x02, 0xb6, 0xc2,
  0x2f, 0xb5, 0xb2, 0xdc, 0x58, 0xcd, 0xa6, 0x0a, 0x24, 0x52, 0xb0, 0xda,
  0x3c, 0x0e, 0xc3, 0x9c, 0xcd, 0xaa, 0xbb, 0x1a, 0xb8, 0x52, 0xa1, 0x6a,
  0x10, 0x37, 0xcc, 0x58, 0xd6, 0xbe, 0xe0, 0x72, 0x27, 0xf9, 0x23, 0xdd,
  0xf6, 0x12, 0xf4, 0xdb, 0xf0, 0x23, 0x40, 0xab, 0x64, 0xb6, 0xdf, 0x01,
  0xca, 0xa7, 0xf1, 0xea, 0xbe, 0xbb, 0xa4, 0x57, 0x49, 0xd6, 0xa2, 0x56,
  0x4e, 0x69, 0xbc, 0xe6, 0x93, 0x23, 0x17, 0xe1, 0x96, 0x1a, 0x40, 0xc5,
  0xf8, 0x47, 0xd6, 0xaa, 0xa9, 0xbe, 0x34, 0xfc, 0x5f, 0x18, 0x58, 0xee,
  0xce, 0x13, 0xe1, 0x44, 0xa8, 0xb4, 0x5e, 0x9c, 0x98, 0x36, 0x32, 0x5d,
  0xa1, 0xcf, 0x2e, 0xa8, 0x49, 0xf2, 0x3e, 0xd5, 0xeb, 0x18, 0xf2, 0x36,
  0xec, 0x29, 0x49, 0x17, 0x08, 0x58, 0x11, 0x55, 0xdc, 0xf8, 0xdc, 0x16,
  0xb2, 0x53, 0xcb, 0x22, 0x9c, 0x28, 0x9e, 0x3f, 0x35, 0xde, 0x50, 0xaa,
  0xeb, 0x08, 0x41, 0xfd, 0x3c, 0xbc, 0x60, 0xd2, 0xbd, 0x0d, 0x67, 0x0a,
  0x05, 0xbc, 0x53, 0xc5, 0xf5, 0xcf, 0x38, 0xc9, 0xfa, 0x75, 0x44, 0x3d,
  0xbb, 0x29, 0xae, 0x31, 0xcc, 0xbc, 0xec, 0x4c, 0xc9, 0x40, 0x3f, 0x48,
  0x0c, 0x5b, 0xd3, 0x6b, 0x36, 0x4f, 0x51, 0xe2, 0x63, 0x18, 0x47, 0x0d,
  0xff, 0xf0, 0x33, 0xd6, 0x4b, 0xbd, 0xb2, 0x3e, 0x63, 0x2a, 0xa5, 0xb5,
  0xef, 0xfe, 0xcf, 0x72, 0x06, 0x63, 0xe7, 0x2f, 0xb1, 0xf6, 0xbb, 0x4e,
  0x1d, 0x43, 0x43, 0x5d, 0x19, 0x52, 0xf1, 0x77, 0x14, 0xd5, 0xf0, 0xf5,
  0xc5, 0xf6, 0xec, 0x04, 0x0b, 0x3a, 0xe2, 0x0e, 0xe2, 0x37, 0x7d, 0x2b,
  0xe9, 0x4b, 0xf1, 0x0a, 0x41, 0x16, 0x1a, 0x35, 0xd4, 0x4c, 0xa3, 0xd0,
  0xc3, 0xd9, 0x33, 0xbd, 0xdb, 0x5d, 0x4c, 0x4a, 0xe1, 0x31, 0x41, 0x35,
  0xe5, 0xf6, 0xc7, 0xfe, 0x3a, 0x0e, 0x09, 0xf5, 0xe7, 0xf4, 0x5b, 0x05,
  0xf3, 0xe4, 0x55, 0x39, 0x1a, 0x7b, 0xc6, 0xfa, 0x31, 0x4f, 0x45, 0x09,
  0x46, 0x69, 0xe7, 0x57, 0x15, 0x22, 0xf5, 0x5a, 0xdd, 0x2d, 0x4f, 0x09,
  0x2a, 0x4e, 0xf2, 0x23, 0x49, 0xe5, 0x77, 0xcf, 0xd0, 0x30, 0x0f, 0xb4,
  0xeb, 0x10, 0xec, 0x10, 0x1a, 0xf4, 0x1a, 0x35, 0xe2, 0xe5, 0x60, 0x35,
  0xcd, 0x6b, 0xe1, 0x60, 0x71, 0xae, 0x78, 0x35, 0xde, 0xf9, 0x7f, 0xea,
  0xb9, 0xe4, 0xd8, 0x17, 0xe0, 0x2f, 0x69, 0x1f, 0xee, 0x0e, 0xa5, 0xf5,
  0x58, 0x27, 0x29, 0xd8, 0x26, 0x3f, 0xff, 0xc0, 0xcd, 0x29, 0x74, 0x2d,
  0xaa, 0xd5, 0x07, 0x27, 0x22, 0x75, 0x3a, 0xc1, 0x03, 0x69, 0x46, 0xaf,
  0xf1, 0xc5, 0x2d, 0xd7, 0x03, 0xf2, 0xfd, 0x1a, 0xd0, 0x05, 0xfb, 0x02,
  0xa6, 0xcd, 0xc1, 0x48, 0x2a, 0x1d, 0xe7, 0xd3, 0x58, 0x0f, 0xce, 0x1b,
  0x59, 0x13, 0x73, 0x69, 0xb3, 0x16, 0xd7, 0x1c, 0x40, 0x2c, 0x36, 0xc2,
  0xc7, 0xcd, 0x2a, 0x13, 0xfc, 0x4c, 0xd3, 0xd4, 0x3a, 0x4a, 0x56, 0xf6,
  0xca, 0x25, 0xf6, 0xc6, 0x1d, 0xf9, 0xa1, 0x46, 0x58, 0xdd, 0x27, 0x17,
  0xd7, 0x4f, 0xe9, 0x25, 0xea, 0xa7, 0xab, 0xec, 0xc0, 0xfd, 0xc1, 0xc0,
  0x47, 0xd4, 0x5c, 0xe2, 0xb5, 0xbd, 0x49, 0xaf, 0x78, 0xd2, 0x5e, 0x53,
  0x32, 0xa5, 0x1e, 0xf3, 0xd9, 0x7a, 0xa3, 0xa2, 0xd6, 0xb6, 0xe1, 0xba,
  0xc5, 0xd8, 0xc1, 0x30, 0x12, 0xb1, 0xe5, 0xcc, 0xe9, 0x5c, 0x7c, 0xf8,
  0xe4, 0xdb, 0xa6, 0x2c, 0x5c, 0x34, 0x0f, 0x22, 0x2c, 0xfa, 0xd9, 0xcf,
  0xd6, 0x3a, 0x62, 0x29, 0xb6, 0x32, 0x1a, 0x29, 0xd9, 0x38, 0x27, 0x04,
  0x45, 0x55, 0x10, 0xfa, 0x42, 0xd0, 0x46, 0x0e, 0xd9, 0x0b, 0xf0, 0xb1,
  0x3f, 0x56, 0xcf, 0x74, 0x59, 0x5e, 0x93, 0x58, 0xbd, 0xff, 0xdb, 0xe8,
  0x6f, 0x0d, 0x25, 0x3b, 0xcf, 0x49, 0xf8, 0xcf, 0x22, 0xd9, 0x1f, 0xdd,
  0xb5, 0xc8, 0xbe, 0xac, 0xba, 0x42, 0x96, 0x5f, 0x35, 0x45, 0x66, 0x35,
  0x2a, 0x03, 0x32, 0x0c, 0xf0, 0x56, 0x4b, 0xd9, 0xf9, 0x9b, 0xed, 0x38,
  0xcb, 0xc3, 0x2b, 0x5b, 0xa7, 0x2f, 0xd3, 0x4c, 0xcb, 0xb1, 0x40, 0x18,
  0xb0, 0x05, 0x10, 0x4e, 0x6b, 0xa5, 0x54, 0x36, 0x43, 0xf2, 0xae, 0xca,
  0x69, 0xfe, 0x37, 0x46, 0x42, 0xbc, 0x3f, 0xb1, 0xc6, 0x29, 0xac, 0xb2,
  0xdd, 0xbe, 0x10, 0x07, 0xb8, 0x12, 0x55, 0x07, 0x10, 0x5f, 0x38, 0x39,
  0x57, 0x4e, 0x6d, 0x03, 0x69, 0x38, 0x9a, 0x4c, 0x57, 0x9b, 0xc5, 0xb3,
  0xb2, 0xbd, 0x62, 0x3f, 0x19, 0xbb, 0xd3, 0xe6, 0x48, 0x18, 0x28, 0xbe,
  0x05, 0xfc, 0xaf, 0x8e, 0xa2, 0x53, 0xec, 0x38, 0xe5, 0xc5, 0xe8, 0xc2,
  0x92, 0xe0, 0x08, 0x3e, 0xfe, 0x92, 0xd3, 0x27, 0xb3, 0xe3, 0xd6, 0xb0,
  0xcb, 0x4a, 0xb6, 0x31, 0x18, 0xb7, 0xc7, 0x22, 0xd7, 0x4a, 0x05, 0xef,
  0x1b, 0xd2, 0xa3, 0xe3, 0x16, 0x68, 0x23, 0x0e, 0x10, 0xb7, 0xdd, 0xe0,
  0x37, 0x4e, 0xef, 0x91, 0xb8, 0xdc, 0x9d, 0x8b, 0x2e, 0xc1, 0xe6, 0x98,
  0xb8, 0x4a, 0xf0, 0xa9, 0xc2, 0xeb, 0xec, 0x46, 0xc0, 0x44, 0x1f, 0xf0,
  0x42, 0xa1, 0x04, 0x23, 0x03, 0x4f, 0x34, 0x45, 0xe1, 0xfd, 0x39, 0x17,
  0xed, 0x1b, 0x56, 0xa5, 0xb0, 0x09, 0x31, 0xaa, 0x63, 0x1e, 0xe3, 0x14,
  0x2e, 0x51, 0x6d, 0xfa, 0x97, 0x25, 0xd7, 0xb2, 0x09, 0x01, 0x8a, 0x07,
  0xb4, 0xaa, 0xa4, 0x44, 0xf9, 0x37, 0xaa, 0x4f, 0x54, 0xf0, 0x9b, 0xd3,
  0x62, 0x58, 0x5c, 0x44, 0x93, 0x4e, 0xae, 0xf8, 0xcd, 0x58, 0xd6, 0xcd,
  0xe7, 0xcc, 0xb1, 0x4f, 0x5c, 0x1b, 0x29, 0x8a, 0x50, 0x3d, 0xa2, 0x4b,
  0xb9, 0x40, 0xda, 0x31, 0xb5, 0x56, 0x23, 0xc2, 0xf1, 0x25, 0x26, 0xbc,
  0x1b, 0xe4, 0xbe, 0x04, 0x0a, 0xc5, 0x43, 0x54, 0xf5, 0xe4, 0x57, 0x28,
  0x9e, 0xf9, 0xdd, 0x27, 0x44, 0x48, 0xf2, 0xc4, 0xfa, 0xbf, 0xc5, 0x2d,
  0xf1, 0xe9, 0xa0, 0x3c, 0xd3, 0x1a, 0xce, 0xd7, 0xc4, 0x1c, 0xa2, 0xb6,
  0x56, 0xab, 0x0d, 0xa1, 0x29, 0xef, 0x27, 0xe9, 0x02, 0xbc, 0x38, 0x7f,
  0x48, 0x34, 0xb9, 0xd7, 0xac, 0xed, 0xb9, 0x3a, 0x51, 0x34, 0xf4, 0x62,
  0x94, 0xde, 0x17, 0x0e, 0x0d, 0x99, 0x26, 0x41, 0x4f, 0x94, 0x15, 0x4d,
  0xb7, 0xdf, 0x1f, 0xc2, 0x6f, 0x56, 0xc9, 0x1e, 0x9c, 0xa6, 0x0d, 0xd4,
  0x47, 0x53, 0x37, 0xb1, 0xf7, 0xb3, 0xe0, 0x8f, 0x14, 0x23, 0x36, 0xa3,
  0xb6, 0xe8, 0xa7, 0xff, 0x49, 0x65, 0x59, 0xb5, 0xbe, 0xc4, 0x3f, 0x13,
  0x0e, 0x9d, 0xfd, 0xe9, 0xbd, 0x5c, 0xfc, 0xf2, 0x37, 0xd9, 0x98, 0x3e,
  0xb5, 0xd4, 0x33, 0x1b, 0xbd, 0xe2, 0x24, 0xf3, 0x0c, 0x37, 0x36, 0x4b,
  0xc0, 0xe8, 0x9d, 0xcf, 0xb1, 0x9f, 0x58, 0x9d, 0xac, 0x28, 0xc7, 0xa0,
  0x3d, 0xb5, 0x08, 0xf1, 0x3c, 0xd3, 0x3d, 0x48, 0xa3, 0xfe, 0x57, 0xf7,
  0xc9, 0xb7, 0x3a, 0xc3, 0xf6, 0x39, 0xcb, 0xdb, 0xcc, 0x45, 0x24, 0xad,
  0x5e, 0xae, 0xce, 0xb0, 0x53, 0xc7, 0xac, 0xb8, 0x19, 0x1f, 0x4c, 0x31,
  0x49, 0x9b, 0xf5, 0x26, 0x37, 0x31, 0xce, 0x25, 0x2b, 0xce, 0xb0, 0xc7,
  0x0e, 0xb4, 0x2e, 0x2e, 0xa5, 0xd5, 0xcf, 0x18, 0xaa, 0xe3, 0x03, 0x5e,
  0xf6, 0xa1, 0x9d, 0x0f, 0x1d, 0x55, 0xe5, 0xe9, 0xc6, 0x21, 0x25, 0x19,
  0x44, 0x8e, 0xd9, 0x1f, 0xc4, 0x02, 0x65, 0xa2, 0x4d, 0x2e, 0xd4, 0x30,
  0xd5, 0x69, 0x19, 0xee, 0x98, 0x4b, 0xd7, 0x2f, 0x57, 0xb3, 0x4c, 0x9b,
  0xaf, 0xdd, 0x2b, 0xaa, 0x93, 0xfb, 0x92, 0x97, 0x63, 0x0d, 0xec, 0xbf,
  0x60, 0xe1, 0xa1, 0x10, 0xce, 0xbb, 0xae, 0x6b, 0xc7, 0x4d, 0x45, 0xc0,
  0xc1, 0x72, 0x49, 0x0e, 0x5a, 0xaa, 0x68, 0x45, 0x0a, 0xcb, 0x22, 0x0b,
  0x21, 0xda, 0x30, 0xaf, 0xb8, 0xe9, 0x9d, 0x39, 0x3f, 0x29, 0x27, 0x0f,
  0x24, 0xe6, 0xc1, 0xae, 0x4f, 0x22, 0x0a, 0x03, 0x34, 0xcb, 0x55, 0x55,
  0x3a, 0x17, 0x14, 0xf2, 0xd0, 0xee, 0x31, 0x13, 0x92, 0x4b, 0xc5, 0x52,
  0x87, 0x29, 0xa2, 0x2e, 0xbc, 0x31, 0x58, 0xc1, 0xa9, 0x0a, 0xb4, 0xad,
  0x9d, 0x8c, 0xe0, 0x1f, 0x55, 0x54, 0xe3, 0x94, 0x4f, 0x65, 0xea, 0x96,
  0x0c, 0xe9, 0x37, 0x54, 0x40, 0xee, 0x63, 0xb6, 0x97, 0x52, 0x17, 0xe6,
  0x62, 0xd0, 0xcc, 0x2b, 0xd0, 0xfb, 0x2b, 0x5a, 0xe4, 0xbc, 0xac, 0xad,
  0x86, 0x69, 0x10, 0xd7, 0x9f, 0x4b, 0xf8, 0x9d, 0xa8, 0x2f, 0xdb, 0x57,
  0x08, 0xda, 0xfa, 0x9e, 0xd5, 0xdb, 0xf8, 0xdc, 0x1c, 0x34, 0x4b, 0xdd,
  0x31, 0xed, 0x17, 0x63, 0xc7, 0x2d, 0x10, 0x86, 0x52, 0x3d, 0xab, 0x67,
  0x8e, 0xca, 0xef, 0x3a, 0x13, 0x09, 0x5e, 0x6b, 0xd8, 0x5b, 0x1e, 0x83,
  0x24, 0x1f, 0x2a, 0xe9, 0xef, 0xcb, 0x01, 0x35, 0x0f, 0x99, 0x3d, 0x29,
  0xc9, 0x88, 0x03, 0x49, 0x17, 0xf0, 0xd8, 0x06, 0xc7, 0xb5, 0x6b, 0xcb,
  0xd1, 0x93, 0x24, 0xa2, 0x5e, 0x57, 0xe8, 0xbd, 0x0e, 0x39, 0xdc, 0x68,
  0x06, 0xa7, 0x35, 0x9a, 0xac, 0x14, 0xe6, 0xbb, 0xfe, 0xd6, 0xe3, 0x27,
  0x47, 0x73, 0xed, 0xc2, 0xc9, 0x08, 0x97, 0xe4, 0xb3, 0xd1, 0x89, 0x01,
  0x67, 0xea, 0xc3, 0x38, 0x1a, 0x45, 0x6a, 0xfb, 0x91, 0xa0, 0x2c, 0x61,
  0x89, 0x32, 0x1f, 0xd5, 0x0a, 0xe0, 0x2e, 0xd8, 0xb3, 0x41, 0x95, 0x1d,
  0x35, 0x46, 0xf7, 0x33, 0x1b, 0x2a, 0xce, 0xf7, 0x9c, 0x32, 0xe3, 0xff,
  0x8b, 0xec, 0x20, 0xeb, 0x16, 0x09, 0xd9, 0xd3, 0x63, 0x47, 0x17, 0x23,
  0x95, 0x93, 0xe6, 0x38, 0x3e, 0xe3, 0x18, 0x87, 0x84, 0x8f, 0x0f, 0xe1,
  0xeb, 0xb7, 0xd3, 0x73, 0x31, 0x86, 0x00, 0xaf, 0xa9, 0x2a, 0xc1, 0x85,
  0xf3, 0x2d, 0x21, 0xfb, 0xd8, 0xfa, 0x61, 0xf7, 0x53, 0x02, 0x69, 0x64,
  0x22, 0xb1, 0x97, 0x0a, 0x19, 0x4a, 0x2a, 0xff, 0xb8, 0xaf, 0xde, 0xa7,
  0x04, 0x9d, 0xc7, 0x97, 0xf7, 0xbb, 0x66, 0x10, 0x12, 0x10, 0x55, 0x34,
  0x04, 0xc6, 0x5c, 0x0d, 0x02, 0x60, 0x6b, 0x5a, 0x24, 0xa3, 0xd1, 0xa5,
  0x1b, 0x20, 0xba, 0xde, 0x66, 0x0c, 0xf4, 0x3a, 0xf6, 0x42, 0x0c, 0x64,
  0xf1, 0xa7, 0xf3, 0xb1, 0xc9, 0x00, 0x9e, 0x42, 0xb4, 0xb8, 0xcb, 0xe1,
  0xc6, 0x37, 0xca, 0xf2, 0xf7, 0x03, 0x63, 0xd1, 0xb4, 0x9c, 0xb1, 0x69,
  0x04, 0x2d, 0x4f, 0xd3, 0x66, 0x29, 0xe4, 0xdf, 0x2d, 0xb3, 0x5b, 0x4b,
  0x1f, 0x0b, 0xbd, 0x8a, 0x20, 0xd4, 0xa2, 0x2c, 0x18, 0xb2, 0x11, 0x35,
  0x89, 0xf0, 0x54, 0xf2, 0x82, 0x3c, 0x24, 0x53, 0xb4, 0x16, 0x9e, 0xd5,
  0xe5, 0x44, 0x87, 0x46, 0xf0, 0x63, 0x1f, 0x53, 0x03, 0x07, 0x6a, 0x04,
  0xfa, 0x69, 0xa5, 0x54, 0x9c, 0x4d, 0x03, 0x99, 0x38, 0xa7, 0xd9, 0xbb,
  0xb3, 0x63, 0x91, 0x38, 0x3b, 0x19, 0x47, 0xd8, 0x8a, 0xca, 0x9e, 0x39,
  0x47, 0xf0, 0xd3, 0xa2, 0x4b, 0xd9, 0xb0, 0xc7, 0xd6, 0x46, 0x28, 0x03,
  0x50, 0xdf, 0x44, 0xbf, 0xa8, 0x33, 0x9d, 0x04, 0x56, 0x0a, 0xe1, 0xed,
  0xbc, 0xa4, 0xbe, 0x58, 0x1a, 0x16, 0x6c, 0x28, 0xed, 0x11, 0x39, 0x59,
  0x0e, 0x07, 0xda, 0xdc, 0x16, 0x41, 0xed, 0xd7, 0xfa, 0x13, 0x0d, 0xcb,
  0xf7, 0xdd, 0xb0, 0xba, 0x1c, 0x56, 0x67, 0x3d, 0x17, 0xed, 0xf2, 0x95,
  0xb3, 0x02, 0x52, 0x88, 0xd5, 0xfe, 0xa6, 0x0c, 0xab, 0x60, 0xb9, 0xcb,
  0x4a, 0x3d, 0xc1, 0x1b, 0xba, 0x1b, 0x81, 0xaf, 0xe9, 0x95, 0x84, 0x67,
  0x84, 0x08, 0xa1, 0x18, 0xea, 0x27, 0xc8, 0xe7, 0xf4, 0x93, 0xd5, 0x74,
  0xd0, 0x71, 0x11, 0x4f, 0xf7, 0xe8, 0x8a, 0x36, 0x53, 0x32, 0xf9, 0x5c,
  0xf5, 0xc3, 0x8e, 0x48, 0x6f, 0xfb, 0x4d, 0x44, 0x5f, 0x3d, 0x0f, 0xf1,
  0x9e, 0x8a, 0xde, 0x3b, 0xc1, 0x16, 0xc7, 0x1b, 0x43, 0x5b, 0x72, 0x91,
  0xe5, 0xcd, 0xcb, 0xd9, 0x74, 0xee, 0x31, 0xd6, 0xfe, 0x1d, 0xa3, 0xf7,
  0x36, 0xab, 0x96, 0xd2, 0x86, 0xc0, 0x2f, 0x47, 0x82, 0x9e, 0xe7, 0x88,
  0xf9, 0xf7, 0xa0, 0xb6, 0x77, 0x42, 0xb4, 0x50, 0xa4, 0x07, 0x0a, 0xf5,
  0x94, 0xd5, 0x59, 0x29, 0xb8, 0x0b, 0xc9, 0x45, 0x56, 0x88, 0x04, 0x97,
  0xd8, 0x36, 0x72, 0x6d, 0xe3, 0x04, 0x7c, 0x78, 0xfb, 0xf0, 0x0a, 0xff,
  0x9b, 0x0a, 0xcd, 0x36, 0xeb, 0x8e, 0xab, 0xab, 0x94, 0xf3, 0x66, 0x61,
  0xf2, 0x2a, 0xaf, 0x06, 0x58, 0x02, 0x18, 0x69, 0x2e, 0x4b, 0x5c, 0xd3,
  0x62, 0xe6, 0x0a, 0x61, 0x68, 0x08, 0xe2, 0xa4, 0x73, 0x1c, 0xba, 0xe3,
  0xdc, 0xe6, 0x41, 0xca, 0xfe, 0xa3, 0xfa, 0xcb, 0x75, 0xd6, 0x1f, 0x67,
  0x9e, 0xf4, 0x6b, 0xf0, 0xe1, 0xa7, 0x38, 0xb7, 0x06, 0x56, 0xd8, 0xe3,
  0x50, 0xa0, 0x32, 0x36, 0x84, 0x43, 0x3b, 0xc7, 0xb4, 0x0e, 0x01, 0x64,
  0xe7, 0x0d, 0x23, 0xff, 0x32, 0xef, 0x08, 0x9a, 0x1d, 0xda, 0x8c, 0xfc,
  0x4d, 0x76, 0xb5, 0x7c, 0xa1, 0x11, 0xae, 0x52, 0xfe, 0xbc, 0x63, 0x54,
  0x6d, 0xa2, 0x4d, 0x9f, 0xd7, 0x43, 0xf4, 0x12, 0xa3, 0xcb, 0x90, 0x86,
  0x5a, 0x9a, 0x8e, 0x0e, 0xda, 0xcb, 0x79, 0x6c, 0xfe, 0x8c, 0x75, 0xb5,
  0xb6, 0xa9, 0xb1, 0x09, 0x95, 0xb7, 0x92, 0x7c, 0x4a, 0x94, 0xae, 0xbb,
  0xa0, 0xa7, 0xec, 0x08, 0x74, 0x41, 0xc1, 0xd8, 0x2c, 0xd5, 0x77, 0x28,
  0xb3, 0xd6, 0x23, 0x3e, 0x81, 0x24, 0x62, 0xcc, 0x78, 0x7c, 0x03, 0x2f,
  0x78, 0x60, 0xc0, 0x0e, 0x95, 0x8e, 0xa6, 0x62, 0xb7, 0xb4, 0x9b, 0x70,
  0xe0, 0x38, 0x65, 0x89, 0xde, 0xd6, 0x04, 0xb6, 0xf0, 0xe2, 0x02, 0x87,
  0xd7, 0x76, 0xce, 0x18, 0xae, 0x95, 0xa2, 0x35, 0xff, 0xe5, 0xe7, 0xe6,
  0xdd, 0x20, 0x21, 0x72, 0x74, 0x48, 0xf5, 0x10, 0x3b, 0x21, 0x9b, 0xd2,
  0xc2, 0xd8, 0xe2, 0x10, 0x85, 0x09, 0xf5, 0x24, 0xd3, 0xa2, 0x93, 0xdc,
  0xf3, 0x2e, 0x82, 0xec, 0x3e, 0x87, 0xcd, 0xbb, 0x06, 0x42, 0x8e, 0x4a,
  0xbd, 0x00, 0x5e, 0xae, 0x46, 0xcd, 0x8c, 0xbe, 0xe5, 0x21, 0x8a, 0xf5,
  0x2c, 0x8c, 0x4d, 0x11, 0x38, 0x14, 0x0e, 0x69, 0xfd, 0x02, 0xcc, 0xb1,
  0xd3, 0x81, 0xb6, 0xe4, 0x69, 0x1c, 0xfa, 0x92, 0x36, 0xc6, 0xa9, 0x17,
  0xae, 0x30, 0x43, 0xb7, 0x41, 0x2c, 0xe3, 0x83, 0x22, 0x31, 0xae, 0x42,
  0x11, 0xa5, 0xeb, 0xff, 0x76, 0x12, 0x38, 0xfe, 0x8f, 0x39, 0x05, 0x51,
  0x3b, 0x31, 0x3b, 0xe5, 0x88, 0xdf, 0x09, 0x1c, 0x3b, 0xd6, 0x85, 0xea,
  0x2c, 0xab, 0xfc, 0xf0, 0x53, 0xf1, 0xe8, 0x37, 0x7a, 0x12, 0x95, 0x0c,
  0x14, 0x47, 0x08, 0xe2, 0x92, 0xdc, 0x13, 0x5b, 0xb7, 0xbb, 0x44, 0x8b,
  0x5c, 0x63, 0xb3, 0x34, 0x94, 0x5a, 0x53, 0x5a, 0xc2, 0x78, 0x9a, 0xf4,
  0x5f, 0x57, 0x5d, 0xf1, 0x5f, 0xb0, 0x37, 0x52, 0xd1, 0xfe, 0x26, 0x02,
  0x28, 0x12, 0x76, 0x3c, 0x15, 0x07, 0x7d, 0xcf, 0xc7, 0x70, 0xf7, 0x72,
  0xf1, 0xd5, 0xa8, 0xf4, 0x7c, 0x77, 0x18, 0x70, 0xfa, 0xab, 0xac, 0x84,
  0x29, 0x13, 0x41, 0x13, 0x16, 0xf5, 0xbc, 0x54, 0xed, 0x0c, 0x3e, 0x34,
  0x59, 0x28, 0x37, 0x06, 0x2d, 0x04, 0xb6, 0xb9, 0xc4, 0xd0, 0x28, 0xe3,
  0x34, 0x5c, 0xc3, 0x20, 0xb7, 0xfe, 0xd0, 0xea, 0xc3, 0x4e, 0x30, 0x51,
  0xc4, 0x12, 0x0c, 0xb8, 0x00, 0x2b, 0xf6, 0x27, 0xc4, 0x17, 0xc3, 0xc5,
  0x19, 0xe3, 0xc3, 0xc8, 0x5c, 0x49, 0xe7, 0xd1, 0xf1, 0xea, 0xce, 0x38,
  0xff, 0x48, 0xed, 0xe6, 0x1f, 0xcf, 0xc8, 0xb6, 0xf2, 0xc2, 0x05, 0xfb,
  0x1a, 0xe1, 0xbb, 0x32, 0xe3, 0x39, 0x43, 0x19, 0x2e, 0xe5, 0x49, 0xae,
  0x57, 0x2e, 0x26, 0xef, 0xcf, 0xed, 0x1d, 0xcc, 0xdf, 0x04, 0xd7, 0xbe,
  0x3a, 0xfe, 0x4c, 0xc5, 0xe7, 0xd2, 0xb5, 0xf6, 0xc6, 0x35, 0x1c, 0x21,
  0x51, 0x4a, 0x37, 0xbb, 0xed, 0xc7, 0x15, 0xee, 0xb0, 0xc8, 0x46, 0xcb,
  0x3e, 0x45, 0x48, 0x1f, 0x27, 0xcd, 0xcb, 0x53, 0x3f, 0x20, 0x16, 0x0a,
  0xe8, 0xcc, 0x1e, 0xfa, 0x40, 0x54, 0xc4, 0xbc, 0xf3, 0xef, 0x07, 0xff,
  0xc6, 0x21, 0xc5, 0x52, 0x00, 0x53, 0xe2, 0x0b, 0x2c, 0xd0, 0x08, 0x54,
  0x44, 0x2a, 0xf3, 0x1e, 0x07, 0xeb, 0x03, 0x06, 0xf7, 0xda, 0xf6, 0x34,
  0x41, 0xe0, 0xf9, 0xf9, 0x4d, 0x15, 0xcd, 0x38, 0xf7, 0x2e, 0x59, 0xfa,
  0xd0, 0x18, 0xbe, 0xd2, 0x16, 0x07, 0xe0, 0x00, 0xca, 0x08, 0x11, 0xd7,
  0xf5, 0x56, 0xf5, 0xe4, 0x05, 0x16, 0xe3, 0x4c, 0x0a, 0xfc, 0x73, 0x28,
  0xdc, 0xf1, 0x3b, 0x0e, 0xd9, 0x05, 0xd9, 0x11, 0x1a, 0x0d, 0xc8, 0xf4,
  0xc3, 0x2d, 0xfc, 0xf0, 0xc1, 0xee, 0x1e, 0xfd, 0xf4, 0x38, 0x30, 0x5f,
  0x58, 0x33, 0x28, 0xcb, 0x13, 0x1d, 0x25, 0x16, 0xcb, 0xda, 0x34, 0xc2,
  0x36, 0xf2, 0x49, 0x27, 0xc1, 0xd6, 0x3f, 0xef, 0xda, 0x38, 0xc8, 0x47,
  0x02, 0x0c, 0x0b, 0xfa, 0xfc, 0xf4, 0xb2, 0xe8, 0xfd, 0x50, 0xe9, 0xae,
  0xe5, 0xf7, 0xf4, 0xe4, 0x26, 0x3d, 0x4c, 0x42, 0x2b, 0xb8, 0xd4, 0xd2,
  0xbd, 0x3d, 0x1b, 0xa9, 0x49, 0x31, 0xe4, 0x33, 0x54, 0xbd, 0x06, 0x1d,
  0x1e, 0x27, 0xc5, 0xe1, 0x50, 0xc1, 0xd1, 0x3c, 0x2f, 0xec, 0x3d, 0x44,
  0x1c, 0xcd, 0xd3, 0xb6, 0xd2, 0x24, 0x0a, 0xc8, 0xbf, 0x32, 0x04, 0xc2,
  0x44, 0x0d, 0x37, 0x0c, 0xce, 0x31, 0x07, 0x10, 0xe1, 0xe1, 0xb4, 0x18,
  0x48, 0x54, 0x00, 0xc5, 0x39, 0xba, 0x19, 0xea, 0x3a, 0x42, 0xd6, 0x44,
  0xe0, 0xe3, 0xeb, 0x0e, 0x50, 0xe5, 0xc0, 0x4a, 0xba, 0xf8, 0xea, 0x1d,
  0xcd, 0x21, 0x32, 0x30, 0x36, 0xef, 0xe7, 0x0b, 0x54, 0xe5, 0xfd, 0xd3,
  0x56, 0x4e, 0x51, 0x41, 0xc7, 0x23, 0xca, 0xe4, 0xee, 0xf0, 0x26, 0x49,
  0x51, 0xb1, 0x3f, 0xfc, 0xb8, 0xcf, 0x05, 0xbd, 0xd5, 0x24, 0xe1, 0xc6,
  0x53, 0x44, 0xaa, 0x05, 0x0d, 0x1b, 0x45, 0x1e, 0x07, 0x40, 0x7f, 0xb9,
  0xf1, 0x05, 0xb5, 0x12, 0x28, 0x1d, 0xa9, 0xf4, 0x44, 0x53, 0xc2, 0x2e,
  0x17, 0xf1, 0x44, 0x53, 0xd8, 0x5c, 0x29, 0x2c, 0xd1, 0x21, 0xd3, 0x31,
  0x2c, 0x0e, 0xe9, 0xba, 0xfe, 0x4e, 0x22, 0x2b, 0x2c, 0xed, 0x33, 0x2d,
  0x5c, 0xf5, 0x07, 0xec, 0xe9, 0x57, 0xd5, 0x21, 0x3d, 0xc2, 0xe9, 0xf4,
  0x11, 0xdd, 0xd6, 0xe5, 0xdd, 0xd5, 0x11, 0x00, 0xd8, 0xe9, 0x09, 0x07,
  0x09, 0xee, 0xf8, 0x36, 0xf3, 0xdd, 0xca, 0xf5, 0x51, 0xd3, 0xe9, 0xb0,
  0xd4, 0xb6, 0x24, 0xc4, 0x1c, 0xf7, 0xd1, 0x3e, 0xdf, 0x09, 0x2e, 0x11,
  0xc4, 0x4f, 0x3e, 0x3e, 0x22, 0xe7, 0x3f, 0xf3, 0x27, 0x00, 0x9a, 0x21,
  0x44, 0xef, 0xea, 0xbe, 0xd6, 0x28, 0x18, 0x34, 0x26, 0x14, 0xb3, 0xd0,
  0xc3, 0x4d, 0xc0, 0xd7, 0x58, 0x2c, 0x40, 0x19, 0xcf, 0x23, 0x71, 0x61,
  0xab, 0xb5, 0x6f, 0x30, 0x3f, 0x01, 0x20, 0xb6, 0xeb, 0xc9, 0xe8, 0x9e,
  0x81, 0xda, 0xa4, 0x98, 0xa4, 0x5f, 0xc5, 0x36, 0xa6, 0x85, 0x1e, 0x76,
  0xfc, 0xb9, 0xf5, 0xd7, 0x0b, 0xab, 0xbe, 0x24, 0x57, 0xbb, 0x68, 0x92,
  0xe2, 0x95, 0x61, 0xf8, 0xf6, 0x30, 0x65, 0x21, 0xcc, 0x8e, 0xba, 0x9f,
  0x08, 0x4b, 0x85, 0xa2, 0x06, 0xe5, 0x58, 0xef, 0x65, 0x08, 0x2d, 0xf6,
  0xac, 0x68, 0xd4, 0x77, 0x36, 0xed, 0xd4, 0xe5, 0x47, 0x17, 0x69, 0x71,
  0xa4, 0xe0, 0x24, 0xcd, 0xb9, 0x03, 0x54, 0x25, 0x88, 0xdd, 0x44, 0x70,
  0xe9, 0xaa, 0xbe, 0xfa, 0xc0, 0x22, 0x8c, 0x53, 0xfa, 0xd7, 0xba, 0x02,
  0xa9, 0x42, 0x47, 0xc9, 0x2d, 0x38, 0x25, 0x5f, 0x2b, 0x22, 0xf0, 0x89,
  0xf3, 0xde, 0x3b, 0x0a, 0xbd, 0xe8, 0x11, 0x06, 0x5c, 0xa4, 0x20, 0xea,
  0x8f, 0x15, 0xc6, 0x2a, 0x96, 0x64, 0xbe, 0x66, 0xb2, 0x93, 0x1e, 0x2a,
  0xb2, 0x91, 0x5b, 0xdf, 0x96, 0xe1, 0xce, 0x09, 0x25, 0xd6, 0xef, 0xaa,
  0x24, 0x48, 0x89, 0xa6, 0x35, 0x02, 0xa6, 0xf1, 0xb5, 0x0e, 0x8f, 0x41,
  0xe4, 0xf4, 0x8e, 0x02, 0x90, 0x32, 0x63, 0x2c, 0xec, 0xb8, 0x2c, 0x54,
  0x34, 0x18, 0x3b, 0xa2, 0x67, 0xf7, 0x12, 0x55, 0xb7, 0xc3, 0x70, 0xa8,
  0xc6, 0xe9, 0x63, 0x65, 0x42, 0x9a, 0x3f, 0xef, 0xdc, 0x1a, 0x36, 0xa2,
  0x0e, 0xd0, 0x6f, 0x9b, 0x30, 0xf9, 0x22, 0x34, 0xc9, 0xa1, 0x00, 0x5a,
  0x0f, 0x43, 0x12, 0x4e, 0xe9, 0x56, 0x10, 0x97, 0xf5, 0x69, 0xd4, 0x54,
  0xbb, 0x5a, 0x58, 0x29, 0xdd, 0x48, 0x11, 0x5f, 0xc3, 0x8d, 0xb3, 0x90,
  0x03, 0x15, 0x25, 0xb0, 0x91, 0xf6, 0x16, 0x90, 0xe9, 0x25, 0xf7, 0xf0,
  0xc9, 0xff, 0xc7, 0xf2, 0x8f, 0x8b, 0xfb, 0x02, 0x16, 0xcb, 0x2d, 0x30,
  0xee, 0xb1, 0x14, 0x37, 0xe3, 0xaa, 0xd2, 0x91, 0x4c, 0x2f, 0x8f, 0x58,
  0x99, 0x9a, 0x91, 0xcc, 0xc2, 0x63, 0x63, 0x46, 0x3a, 0x49, 0x9b, 0xa1,
  0x2b, 0xe9, 0xd2, 0xc4, 0x8e, 0x67, 0xab, 0xa2, 0x15, 0x10, 0x4f, 0xf6,
  0x6f, 0x88, 0x04, 0x9a, 0xc0, 0x9e, 0x10, 0xab, 0x33, 0x8b, 0x15, 0xe2,
  0x8f, 0x45, 0x27, 0xfb, 0xf0, 0x19, 0xc0, 0x96, 0xbe, 0xce, 0x3a, 0x93,
  0x5b, 0xe0, 0x95, 0xf9, 0xde, 0x32, 0xc7, 0x6c, 0x24, 0x4d, 0x5e, 0x09,
  0x62, 0x20, 0x20, 0xa0, 0x02, 0xff, 0x56, 0xbd, 0x51, 0x91, 0xd6, 0xf0,
  0xce, 0xb7, 0x3c, 0xfb, 0xc0, 0x52, 0x6b, 0xf3, 0xb4, 0x67, 0x56, 0xe5,
  0x3d, 0x83, 0x14, 0xa6, 0xed, 0x3b, 0xfc, 0x95, 0x46, 0x19, 0xc7, 0x0b,
  0xa6, 0xac, 0xa2, 0xb6, 0x9a, 0x58, 0x31, 0xca, 0x37, 0xda, 0x13, 0x33,
  0xcc, 0xa8, 0xe1, 0x36, 0x85, 0xd7, 0x55, 0xdd, 0xc4, 0x27, 0x55, 0x8e,
  0x34, 0x4f, 0x36, 0xda, 0x6b, 0xbc, 0xff, 0xc0, 0xfd, 0x1d, 0x70, 0x35,
  0xc1, 0x28, 0xa4, 0x99, 0x31, 0x4d, 0x48, 0x2f, 0x17, 0x0a, 0xf9, 0x02,
  0xf6, 0x08, 0x04, 0xfb, 0x37, 0xa8, 0x8a, 0x4b, 0x8c, 0x34, 0xce, 0xb7,
  0xfc, 0xaa, 0x40, 0x3a, 0x39, 0xab, 0xa2, 0x81, 0xcd, 0x0b, 0x66, 0xf5,
  0x84, 0xb1, 0x38, 0x9e, 0xc4, 0x41, 0x1e, 0x01, 0xa1, 0xba, 0xdd, 0x95,
  0x44, 0x3d, 0x17, 0xea, 0x91, 0x67, 0x37, 0x42, 0xa5, 0x66, 0xcd, 0x46,
  0x3c, 0xdf, 0x4d, 0xa2, 0x08, 0xf1, 0xee, 0x38, 0xb0, 0x16, 0xf2, 0x18,
  0xdd, 0x1d, 0xb5, 0x41, 0x47, 0x4e, 0xf8, 0x06, 0x2b, 0xd3, 0x0c, 0x60,
  0xb0, 0xf4, 0xc5, 0xf8, 0x9d, 0x87, 0x1b, 0xa7, 0x0d, 0xb6, 0xea, 0x42,
  0xa9, 0x08, 0x81, 0xa6, 0xe8, 0x9f, 0xae, 0x47, 0x24, 0xb2, 0x62, 0xee,
  0xc3, 0x1e, 0xe9, 0xa1, 0x42, 0xea, 0x4e, 0xde, 0x40, 0xef, 0x43, 0xa1,
  0xd2, 0xe8, 0x22, 0x92, 0x52, 0x21, 0x12, 0x43, 0x1b, 0x26, 0x50, 0x0c,
  0x3d, 0x0e, 0xee, 0xa4, 0x4b, 0xbf, 0x28, 0x40, 0x42, 0x26, 0x4f, 0xcd,
  0xc2, 0x01, 0x3d, 0xbb, 0x17, 0xea, 0x9b, 0xbf, 0x4b, 0x64, 0xec, 0xd8,
  0xa2, 0x9d, 0x0d, 0xb9, 0xa2, 0x56, 0x48, 0x76, 0xa8, 0xa0, 0xf2, 0x04,
  0xe8, 0x45, 0x23, 0x50, 0x5b, 0xee, 0x5b, 0xe5, 0x4e, 0xaf, 0xff, 0x5d,
  0x8f, 0x6c, 0xe0, 0xef, 0x09, 0x9a, 0x48, 0x07, 0xf0, 0x98, 0x8a, 0x9f,
  0xfa, 0xa2, 0xde, 0x10, 0x57, 0x0a, 0xc9, 0x1d, 0x01, 0xd2, 0x20, 0x07,
  0x3b, 0xba, 0x6d, 0x01, 0x26, 0xa0, 0x72, 0xbb, 0x5f, 0xa9, 0xc6, 0x6c,
  0x58, 0x32, 0xbe, 0x9f, 0x58, 0xf8, 0xa6, 0x4f, 0xa8, 0x1b, 0xf8, 0xea,
  0x41, 0xff, 0x52, 0xb8, 0xae, 0x90, 0xf0, 0x40, 0xea, 0xf7, 0xf9, 0x42,
  0x2c, 0xca, 0x55, 0xd2, 0xc1, 0xf2, 0x0a, 0xb2, 0xe0, 0x9b, 0x59, 0x2f,
  0x0d, 0xf4, 0xf3, 0x08, 0x6c, 0xbf, 0x2d, 0xfd, 0x06, 0x39, 0x9f, 0xe9,
  0xf7, 0xaf, 0x4a, 0xe8, 0xd3, 0xf6, 0xf7, 0x0a, 0xd7, 0x0b, 0x12, 0x9b,
  0x68, 0x96, 0x16, 0x56, 0x53, 0x05, 0xc5, 0xe7, 0xca, 0xb0, 0xa5, 0x37,
  0x56, 0x23, 0xa6, 0xb5, 0x10, 0x32, 0xe3, 0xdd, 0x46, 0x51, 0x3e, 0x51,
  0xe2, 0xca, 0xaa, 0x18, 0x46, 0x67, 0xfc, 0x49, 0xde, 0x46, 0x12, 0x3f,
  0x48, 0xd6, 0x4e, 0xf6, 0x5d, 0x18, 0xb4, 0x61, 0x57, 0xbe, 0x1f, 0xc7,
  0x1f, 0x4d, 0xc8, 0x51, 0x9c, 0x99, 0x84, 0x89, 0xa2, 0x35, 0x59, 0xe6,
  0x4b, 0x9f, 0x17, 0x90, 0xf5, 0xed, 0xd4, 0xe9, 0xda, 0xb9, 0x2f, 0xfc,
  0xe0, 0xf4, 0x28, 0x28, 0x1a, 0xd2, 0xf0, 0xe1, 0x9f, 0xbd, 0xfb, 0x24,
  0xde, 0xff, 0x8f, 0x8a, 0xb7, 0x31, 0xfb, 0x4b, 0xa1, 0x60, 0x3c, 0x47,
  0xa7, 0x06, 0xf9, 0x0a, 0x98, 0xb5, 0xce, 0x3e, 0x1c, 0xcd, 0x20, 0x4c,
  0x40, 0x22, 0x0d, 0xb6, 0xf3, 0xba, 0x3e, 0xa2, 0xbb, 0xee, 0x0a, 0xb6,
  0xe9, 0xdf, 0xd6, 0xd7, 0x03, 0xea, 0x25, 0x35, 0xa5, 0xc1, 0x50, 0xf6,
  0x34, 0xd9, 0x5c, 0xca, 0x02, 0x2d, 0x4d, 0xef, 0xa7, 0x60, 0x9e, 0x54,
  0xd2, 0xa6, 0xb8, 0x62, 0x09, 0x39, 0x9b, 0xfd, 0x10, 0xd2, 0x5d, 0x9e,
  0x4b, 0x1b, 0xcd, 0x90, 0x4c, 0x09, 0x28, 0xb5, 0x31, 0xcb, 0x95, 0x12,
  0xa5, 0x50, 0x4b, 0x4e, 0x11, 0x68, 0x4d, 0xb4, 0x26, 0xf0, 0x67, 0x11,
  0xf3, 0xec, 0x17, 0xee, 0xed, 0x2a, 0x4a, 0x3e, 0x10, 0x35, 0x95, 0xb4,
  0xa0, 0xd5, 0x00, 0x48, 0x96, 0xd0, 0xe5, 0xc7, 0x2f, 0x16, 0xcf, 0x9d,
  0x57, 0x8e, 0x5b, 0x90, 0x50, 0x42, 0x54, 0xa8, 0x60, 0x49, 0xf7, 0x90,
  0xd4, 0x4a, 0xca, 0xff, 0xa7, 0xa2, 0x48, 0x12, 0xf3, 0x3f, 0x23, 0x45,
  0xce, 0x91, 0x16, 0xc2, 0xb6, 0x1b, 0xf6, 0xfb, 0xf4, 0x5e, 0x0d, 0xa7,
  0x1b, 0xb4, 0x01, 0xbe, 0xde, 0x39, 0xd9, 0x1b, 0x9d, 0x1f, 0x9f, 0xe1,
  0xa2, 0xdb, 0x5e, 0x40, 0x04, 0xbf, 0xdd, 0x12, 0x9b, 0x6f, 0x27, 0x5b,
  0x24, 0x9b, 0xe3, 0x0e, 0xb2, 0xb9, 0x10, 0x3f, 0x1b, 0x2d, 0x45, 0x06,
  0xf1, 0x42, 0x8f, 0x17, 0x22, 0x48, 0x3d, 0xac, 0xe8, 0x10, 0x93, 0xa9,
  0x06, 0xd3, 0xf4, 0x92, 0xd1, 0xae, 0xbe, 0x3a, 0xf7, 0x15, 0xb4, 0x23,
  0x99, 0xd7, 0x95, 0xe5, 0xd2, 0x87, 0x4d, 0xba, 0x68, 0x63, 0x05, 0x2a,
  0x32, 0x69, 0x2e, 0xa1, 0xe7, 0x9a, 0xea, 0x49, 0x33, 0xef, 0xc8, 0xca,
  0x48, 0xf8, 0xfe, 0xbb, 0xb2, 0x07, 0x05, 0xc2, 0x31, 0x81, 0x35, 0xf9,
  0x3e, 0x21, 0xc1, 0x00, 0xe3, 0xc0, 0x9b, 0xd7, 0x08, 0xc2, 0x3f, 0x24,
  0xe1, 0x32, 0x4a, 0x47, 0x32, 0x17, 0x9f, 0x9a, 0x34, 0x54, 0xf5, 0xa6,
  0x4d, 0xf1, 0xd8, 0x4c, 0x2c, 0x6e, 0xb6, 0x35, 0xbd, 0xf2, 0x3b, 0x5d,
  0x5d, 0x45, 0x27, 0xbe, 0x04, 0xae, 0x14, 0xf0, 0x0c, 0xdc, 0x82, 0x12,
  0xf1, 0x14, 0x4e, 0xd7, 0xa0, 0x52, 0xc0, 0xba, 0xcc, 0x08, 0xac, 0x95,
  0xd1, 0xe5, 0x00, 0x9e, 0xc7, 0xe6, 0xdd, 0x33, 0x67, 0x58, 0x29, 0x3f,
  0x3e, 0x21, 0x2e, 0xd0, 0xa3, 0x52, 0xa8, 0x16, 0x1e, 0x2a, 0xf4, 0x97,
  0xc5, 0xda, 0xc7, 0xc7, 0x30, 0x04, 0xc8, 0x22, 0x25, 0xfd, 0x1b, 0x41,
  0xcc, 0xb5, 0x67, 0x9c, 0x9d, 0x96, 0x1d, 0x97, 0x98, 0x87, 0xb1, 0x0d,
  0x12, 0x24, 0x9f, 0x90, 0xac, 0x1d, 0x32, 0xc8, 0x06, 0x1a, 0x06, 0xad,
  0xda, 0xc8, 0x1c, 0x34, 0x6c, 0x05, 0xa8, 0xcb, 0xc5, 0x0a, 0xdf, 0xfc,
  0x1a, 0x23, 0x57, 0xa7, 0xf5, 0xda, 0x66, 0xcf, 0x7c, 0x38, 0x0e, 0x58,
  0xc2, 0xed, 0x1a, 0x55, 0x42, 0x25, 0x42, 0x08, 0xd6, 0x0d, 0x3e, 0x2f,
  0x55, 0xbd, 0xcb, 0x15, 0xbd, 0x15, 0xe6, 0x39, 0xbf, 0xf9, 0x59, 0xd6,
  0x43, 0x35, 0x66, 0xc4, 0xb5, 0x52, 0xc6, 0xd4, 0x6c, 0x48, 0x55, 0x0a,
  0x2b, 0x41, 0x8e, 0x44, 0x30, 0xfa, 0xfe, 0xc5, 0x50, 0x9e, 0x59, 0xd5,
  0x2a, 0x9e, 0x4e, 0x59, 0xc9, 0x2d, 0x56, 0xc2, 0x9f, 0xc8, 0xd2, 0xa0,
  0x49, 0x30, 0x66, 0x2b, 0x1d, 0x4a, 0xc0, 0xaf, 0xf6, 0xe2, 0x99, 0x60,
  0xec, 0x49, 0x63, 0xb8, 0x67, 0xb4, 0x64, 0x3f, 0x02, 0xfa, 0x6f, 0xff,
  0xe8, 0x20, 0x90, 0xaa, 0x4b, 0xa5, 0x50, 0x2d, 0xf2, 0xf8, 0xa4, 0xf5,
  0xa0, 0x04, 0xba, 0xd3, 0xa3, 0xc1, 0xa6, 0x8d, 0x61, 0x62, 0x9e, 0xac,
  0x55, 0x61, 0xfb, 0x23, 0x09, 0x9e, 0x4a, 0xbb, 0xf1, 0x6c, 0xb0, 0x3f,
  0xc7, 0xac, 0x99, 0x9d, 0x34, 0x54, 0x0f, 0xe3, 0x5f, 0x3f, 0x0c, 0xe9,
  0xa3, 0x30, 0xbe, 0xdf, 0x24, 0xcc, 0xb0, 0x6f, 0x98, 0x55, 0x5e, 0xbe,
  0xae, 0x60, 0x78, 0x33, 0xb2, 0x2b, 0xbb, 0x3d, 0x9a, 0x9b, 0x8b, 0x91,
  0xd6, 0xf7, 0x03, 0xf1, 0xd6, 0x95, 0x4d, 0xd8, 0xcc, 0xf5, 0x35, 0xdd,
  0x11, 0xbf, 0xb3, 0x40, 0xa2, 0xff, 0xad, 0xb3, 0x2e, 0xc5, 0x6d, 0x41,
  0x8c, 0xd9, 0x13, 0xc2, 0xb7, 0x09, 0x61, 0x1d, 0xa0, 0x0f, 0xbc, 0xa1,
  0x25, 0xbc, 0xae, 0x21, 0x52, 0xdc, 0xbc, 0xa3, 0xd8, 0x05, 0x0b, 0xfd,
  0x36, 0x3d, 0x1a, 0x91, 0xf5, 0x0f, 0xef, 0xd0, 0xef, 0xe8, 0x46, 0x15,
  0x0d, 0x06, 0xfe, 0x18, 0xab, 0x65, 0x18, 0xf2, 0xdc, 0x13, 0xe3, 0xf0,
  0xbc, 0x32, 0x2c, 0x46, 0x11, 0x3e, 0xd3, 0x3a, 0x5b, 0x52, 0x5a, 0xd9,
  0x06, 0x01, 0x3e, 0x0d, 0xd5, 0xa6, 0xbf, 0xbc, 0xac, 0xe9, 0x0c, 0xe6,
  0x6b, 0xc4, 0x2f, 0xf6, 0x4c, 0x14, 0x02, 0x16, 0x71, 0xec, 0xc6, 0x29,
  0xe2, 0x6b, 0xcf, 0x53, 0xab, 0xa1, 0x62, 0x04, 0xa2, 0xb1, 0x4e, 0xae,
  0xe7, 0x22, 0x65, 0xcb, 0x6a, 0x8d, 0x86, 0x33, 0xa6, 0x01, 0x01, 0x34,
  0x8d, 0x46, 0x59, 0x6b, 0xd3, 0x46, 0x9c, 0x8f, 0x06, 0x19, 0x8f, 0xac,
  0xc4, 0x2e, 0x77, 0xbf, 0x00, 0xad, 0x54, 0x70, 0x28, 0x62, 0x79, 0x97,
  0x81, 0xb7, 0x42, 0x74, 0x44, 0xfb, 0x97, 0x00, 0x2f, 0xa0, 0xdc, 0x37,
  0x8a, 0xea, 0x90, 0xe3, 0x75, 0xcc, 0xb4, 0xbf, 0x8b, 0x69, 0x14, 0xfe,
  0x77, 0x89, 0x6e, 0x58, 0x58, 0x96, 0x15, 0x09, 0x00, 0xbd, 0x78, 0xb7,
  0xc1, 0xfe, 0x6c, 0xf0, 0x37, 0x90, 0xc1, 0xe6, 0xbb, 0x9f, 0x1d, 0x8a,
  0xa9, 0x3d, 0xd4, 0x06, 0x7d, 0x4b, 0x95, 0xc2, 0xb0, 0x3f, 0x11, 0xbb,
  0x46, 0x16, 0x71, 0x4d, 0xbc, 0x8d, 0x66, 0x1d, 0xb7, 0xd5, 0xdc, 0x0c,
  0xee, 0xd7, 0x9d, 0xd4, 0xec, 0xb3, 0x84, 0x69, 0x4c, 0x56, 0xe3, 0x54,
  0xbb, 0x92, 0xe1, 0x17, 0xe2, 0x52, 0x9f, 0xe4, 0x22, 0xa5, 0x0a, 0x4c,
  0x17, 0x91, 0xeb, 0xa9, 0x8b, 0x92, 0xb9, 0xff, 0x2e, 0xea, 0x2a, 0xcf,
  0x00, 0x0c, 0x8a, 0x96, 0xaa, 0x59, 0xba, 0xeb, 0xf6, 0xb0, 0xe9, 0xe0,
  0x29, 0x34, 0xeb, 0xfb, 0xed, 0x74, 0x33, 0x7a, 0x8a, 0x0e, 0xc7, 0xce,
  0x50, 0x25, 0x73, 0x32, 0x5d, 0xba, 0x91, 0x10, 0xa4, 0x9f, 0x8e, 0x92,
  0x71, 0x3d, 0x14, 0x79, 0x5a, 0xa6, 0xf8, 0x36, 0x94, 0xa8, 0xd7, 0x1e,
  0xc2, 0x85, 0x46, 0x60, 0x25, 0x9b, 0x15, 0x91, 0x38, 0x93, 0x8b, 0x18,
  0x10, 0xbb, 0xd2, 0x2a, 0x26, 0x91, 0xf5, 0x49, 0x50, 0x1d, 0x82, 0x2e,
  0x6a, 0x2c, 0x51, 0xe2, 0xc6, 0x5e, 0xe2, 0xf7, 0x1a, 0x53, 0xa3, 0x3d,
  0x58, 0x7a, 0x94, 0x35, 0xb6, 0xa7, 0x97, 0x04, 0x9e, 0x32, 0x6a, 0x33,
  0x04, 0x83, 0xfa, 0x64, 0xb4, 0x3f, 0x63, 0xfa, 0x62, 0x87, 0xe0, 0xb6,
  0x63, 0xfb, 0x7e, 0xc2, 0x5f, 0xd3, 0x00, 0x40, 0x52, 0xfb, 0x0c, 0x2f,
  0x23, 0xaf, 0x39, 0x41, 0x16, 0x93, 0x95, 0x4d, 0xf6, 0xbb, 0x4a, 0x2e,
  0x9e, 0x32, 0x11, 0x0a, 0x58, 0x71, 0xe0, 0xfd, 0xf1, 0x5f, 0x6a, 0x76,
  0x45, 0x9c, 0x48, 0x87, 0xf4, 0x4c, 0x4f, 0x51, 0x71, 0xd5, 0xf4, 0xdf,
  0xb6, 0x0d, 0x1b, 0xe5, 0x71, 0x03, 0x78, 0xe1, 0x82, 0x9e, 0xfd, 0xc7,
  0xe6, 0x23, 0x33, 0xb0, 0x3d, 0xda, 0x37, 0x83, 0xed, 0x87, 0xe5, 0xb8,
  0x47, 0xd8, 0x72, 0x82, 0x9a, 0x42, 0x25, 0x45, 0x31, 0xab, 0xa1, 0x68,
  0x8d, 0xe2, 0xd1, 0x4d, 0x05, 0x54, 0x46, 0x53, 0x5e, 0x98, 0x9d, 0xc8,
  0x53, 0x41, 0x5f, 0x7a, 0x17, 0x8e, 0x14, 0xd9, 0x59, 0x03, 0x0e, 0x0a,
  0x0a, 0xda, 0x47, 0xe0, 0xe8, 0xe2, 0x85, 0x5a, 0x57, 0x0e, 0x6e, 0x69,
  0xeb, 0x7c, 0xcd, 0x1e, 0x4b, 0x69, 0xc3, 0xf7, 0x36, 0xf9, 0x30, 0x09,
  0x69, 0x16, 0xd5, 0x91, 0xe4, 0xfa, 0xca, 0xaa, 0xfd, 0x7c, 0x90, 0xcc,
  0xcb, 0xca, 0x3d, 0x47, 0x8e, 0x85, 0xdb, 0x93, 0x9c, 0x13, 0xc8, 0x90,
  0x2d, 0x0f, 0x20, 0x94, 0x3f, 0xc3, 0x2a, 0x4f, 0x4b, 0x51, 0x1d, 0x04,
  0x41, 0x35, 0x84, 0xf6, 0xb6, 0x65, 0x39, 0xdd, 0x89, 0xeb, 0x99, 0x02,
  0xa8, 0x59, 0x77, 0xbd, 0x79, 0xa9, 0x01, 0x6a, 0x7e, 0x7a, 0x8e, 0x69,
  0x97, 0xc8, 0xad, 0x8c, 0x65, 0x70, 0x85, 0xd1, 0x62, 0x11, 0xf1, 0xb3,
  0xcb, 0x14, 0x0a, 0xf6, 0x17, 0x7c, 0xe3, 0x3c, 0xcb, 0xd1, 0xe5, 0xf5,
  0x79, 0x86, 0x52, 0x36, 0xb6, 0x9b, 0x58, 0x91, 0x7c, 0x45, 0xb9, 0x1c,
  0x37, 0x2a, 0x51, 0xf6, 0x13, 0x48, 0x5d, 0xa7, 0x1a, 0xa6, 0x9e, 0x42,
  0x35, 0x48, 0x62, 0x06, 0x08, 0x26, 0x1d, 0xd8, 0xe2, 0x09, 0x3a, 0x2a,
  0xad, 0x0f, 0xbc, 0xa8, 0xd7, 0xeb, 0x64, 0x77, 0x0b, 0x2c, 0xab, 0xe8,
  0x40, 0x59, 0xa4, 0x7c, 0xb3, 0xc1, 0x0b, 0x50, 0x60, 0x17, 0xae, 0x85,
  0xa6, 0x4f, 0x45, 0x4b, 0x24, 0x2a, 0x9c, 0x34, 0xe2, 0xcf, 0x61, 0x59,
  0x30, 0xeb, 0x5a, 0x97, 0x56, 0x77, 0x66, 0xa1, 0x30, 0xfd, 0x77, 0x97,
  0x13, 0x75, 0x54, 0x5f, 0x1d, 0x08, 0x7c, 0x8d, 0x03, 0x04, 0x73, 0xd9,
  0x72, 0x35, 0x6d, 0xea, 0xd1, 0xd0, 0x13, 0xd1, 0xac, 0x78, 0xfe, 0x1b,
  0xce, 0xdb, 0xaf, 0x4f, 0xfd, 0xa8, 0x94, 0xd0, 0xb2, 0xec, 0x6b, 0x70,
  0x43, 0x1c, 0xa5, 0x1d, 0xe2, 0x6d, 0xe6, 0xb8, 0x99, 0x60, 0x27, 0x2d,
  0x47, 0x11, 0xb5, 0x51, 0x7a, 0x29, 0x5f, 0xb4, 0xf1, 0x4d, 0xd7, 0x8a,
  0x61, 0xd8, 0xe5, 0x09, 0x81, 0x34, 0xfb, 0xcf, 0xb3, 0xcb, 0x71, 0x0c,
  0x36, 0xaa, 0xd9, 0x06, 0x4c, 0xb6, 0x4a, 0x3f, 0x4c, 0x35, 0x48, 0x52,
  0x95, 0x9b, 0xf7, 0x18, 0x6a, 0x8c, 0x05, 0xb5, 0x2c, 0xe5, 0x3c, 0x86,
  0xa5, 0xda, 0x62, 0x43, 0xc8, 0x8e, 0x8a, 0x19, 0x0f, 0x88, 0xc7, 0xa4,
  0x32, 0x49, 0x0f, 0xcb, 0x3b, 0xe8, 0xee, 0xee, 0x97, 0x4f, 0xdd, 0x67,
  0xf0, 0x63, 0x72, 0x35, 0x93, 0x1f, 0x30, 0xfe, 0x97, 0xa9, 0x06, 0x79,
  0x51, 0xdd, 0xc3, 0x31, 0x6e, 0x43, 0x7a, 0xe3, 0xcd, 0x97, 0x4e, 0x14,
  0xde, 0x9f, 0xf6, 0x6c, 0x04, 0x46, 0x78, 0x59, 0x18, 0x1d, 0xf6, 0xa5,
  0x9e, 0x31, 0x74, 0xe1, 0xa9, 0x54, 0x93, 0x0b, 0x5c, 0xae, 0xd1, 0xdd,
  0x3f, 0x14, 0x24, 0x82, 0xe6, 0xe0, 0x1b, 0x08, 0x89, 0x84, 0xe1, 0x1b,
  0xa5, 0xf2, 0xb7, 0x56, 0x7d, 0x26, 0xc2, 0x83, 0xcf, 0xfb, 0xd4, 0x86,
  0xc6, 0xa8, 0x16, 0x4a, 0xd1, 0x61, 0x8b, 0x5c, 0x37, 0x6a, 0x4f, 0x90,
  0xf1, 0x44, 0xcb, 0x28, 0x90, 0xe6, 0xb3, 0x6a, 0x6e, 0xd9, 0x31, 0x01,
  0x16, 0x0f, 0x05, 0x7d, 0xd2, 0x03, 0x77, 0xee, 0x75, 0x2b, 0x3f, 0x99,
  0xa4, 0x5a, 0x43, 0x30, 0xab, 0x08, 0xb9, 0x35, 0x33, 0x68, 0x95, 0x3d,
  0x96, 0xb6, 0x67, 0x00, 0xfc, 0x86, 0x2c, 0x7d, 0xc1, 0xef, 0xb8, 0x6d,
  0x4d, 0xde, 0x81, 0xa7, 0xab, 0xce, 0x92, 0xdb, 0xc7, 0xeb, 0xc8, 0xb6,
  0xa8, 0xcb, 0x9f, 0x07, 0x96, 0x06, 0x9b, 0xd4, 0xac, 0xef, 0x4c, 0xcd,
  0x08, 0xaf, 0x4a, 0xc1, 0x81, 0x42, 0x8a, 0x97, 0x21, 0x1b, 0x6b, 0xfc,
  0x60, 0xd5, 0x19, 0x63, 0x93, 0x5b, 0x5d, 0xa1, 0x93, 0x5e, 0xee, 0x3c,
  0x6c, 0xf0, 0x57, 0xd8, 0x8d, 0x45, 0x4c, 0x74, 0x87, 0x83, 0x3f, 0x14,
  0x3a, 0x79, 0x06, 0x65, 0xe8, 0x97, 0x41, 0x2e, 0xa2, 0x8f, 0xe3, 0x7d,
  0x86, 0x53, 0xdf, 0x44, 0xbc, 0x2f, 0xf0, 0xf3, 0x4f, 0x19, 0xe9, 0xc5,
  0x34, 0x48, 0xba, 0x01, 0x36, 0x2b, 0x93, 0xbd, 0x24, 0x96, 0xeb, 0x8b,
  0x2d, 0xb4, 0xf8, 0xa2, 0x4b, 0x9e, 0x96, 0x65, 0x81, 0x74, 0xff, 0x5c,
  0x9b, 0x3b, 0x88, 0x35, 0x9b, 0xf9, 0xad, 0xf8, 0x47, 0xa4, 0xbb, 0x07,
  0x9d, 0x90, 0x79, 0x15, 0x4e, 0xff, 0xce, 0xe5, 0x53, 0x8b, 0x56, 0x26,
  0x13, 0xf1, 0x5d, 0xed, 0x90, 0x60, 0x2c, 0xbd, 0xae, 0x86, 0x20, 0x21,
  0x2d, 0x96, 0x81, 0x33, 0xa7, 0x07, 0x07, 0x20, 0x4b, 0x4c, 0x84, 0x5e,
  0x9d, 0x5a, 0xc9, 0x2e, 0x97, 0xd7, 0x5b, 0x5d, 0xcc, 0x3b, 0x19, 0x6f,
  0x01, 0x0a, 0x24, 0x76, 0x4a, 0xaa, 0x88, 0x3c, 0x2a, 0x94, 0xcd, 0x35,
  0xf0, 0x34, 0x73, 0xe4, 0x94, 0xef, 0xae, 0x35, 0x21, 0x58, 0x27, 0x1a,
  0x92, 0x26, 0xe9, 0xf3, 0x20, 0x29, 0xc5, 0x0b, 0xb3, 0x66, 0x2a, 0xda,
  0xcb, 0x0d, 0x1f, 0x36, 0x6c, 0x5c, 0xb3, 0xc8, 0x1b, 0x99, 0x45, 0x66,
  0xed, 0xbc, 0x94, 0xb4, 0xf8, 0xca, 0x58, 0x0a, 0x33, 0xb4, 0x46, 0x3f,
  0x6f, 0xdb, 0xe6, 0xd2, 0x40, 0x23, 0xb6, 0x45, 0x56, 0x42, 0x02, 0x7a,
  0x6d, 0x4f, 0x17, 0x9c, 0x06, 0x08, 0x8d, 0x5c, 0xac, 0x00, 0x0a, 0x17,
  0x64, 0x27, 0xfb, 0xd1, 0x07, 0x1f, 0x38, 0xd2, 0x9f, 0x6a, 0xee, 0x10,
  0x94, 0xfc, 0x20, 0x54, 0x60, 0x91, 0x57, 0x0e, 0x79, 0x9b, 0xc0, 0x6e,
  0x1e, 0xb1, 0xb9, 0x54, 0x0b, 0x28, 0x48, 0x2c, 0xa6, 0x6d, 0x1d, 0x42,
  0x60, 0xde, 0x11, 0x53, 0xb3, 0xc7, 0xd8, 0xeb, 0x31, 0xd6, 0xdb, 0x5f,
  0xf6, 0xca, 0x1a, 0x86, 0x0c, 0xa6, 0x37, 0xed, 0xb0, 0x1e, 0xfc, 0xf6,
  0xb6, 0xf4, 0xfe, 0xb1, 0x7a, 0xe6, 0x1d, 0x5f, 0xad, 0xb7, 0xda, 0x16,
  0xfa, 0xe6, 0xd2, 0xc0, 0x21, 0xeb, 0xe7, 0x02, 0x83, 0xaa, 0x58, 0x5b,
  0x0d, 0x5b, 0x1b, 0xd9, 0xab, 0xbb, 0x47, 0x39, 0x62, 0x25, 0xa0, 0x40,
  0x3a, 0xc4, 0xfa, 0x2b, 0xf4, 0xdf, 0xae, 0x40, 0x5a, 0x28, 0xb7, 0x42,
  0x4e, 0xee, 0xb7, 0xef, 0x03, 0xe4, 0xe0, 0x53, 0x98, 0x0b, 0x51, 0xe4,
  0xc3, 0xe6, 0x93, 0xaa, 0xf0, 0x66, 0x06, 0x5a, 0x6b, 0x05, 0x39, 0x39,
  0xa2, 0xf3, 0x18, 0xee, 0x5d, 0xed, 0x25, 0xa8, 0x63, 0x51, 0xeb, 0x0d,
  0xed, 0xfb, 0x29, 0x61, 0x45, 0xa6, 0xa1, 0x93, 0xf1, 0xd1, 0xaa, 0xcf,
  0xa4, 0x8a, 0x16, 0x4f, 0xb5, 0x95, 0x85, 0x17, 0x1a, 0x1f, 0x0b, 0x49,
  0x09, 0x58, 0x81, 0xfc, 0x55, 0x5e, 0x03, 0xc5, 0xc2, 0xcb, 0x5f, 0x14,
  0x4d, 0xcc, 0x95, 0x4d, 0xfb, 0x3f, 0xa6, 0xd9, 0x36, 0x96, 0x49, 0x41,
  0x13, 0x89, 0xcb, 0x51, 0xb8, 0xd7, 0xe4, 0x02, 0xd3, 0xd1, 0xea, 0x79,
  0x2f, 0x20, 0xbe, 0x41, 0x67, 0xe2, 0xd6, 0x50, 0x3d, 0x2e, 0x84, 0xee,
  0xda, 0x3c, 0xf7, 0x75, 0xe0, 0x1f, 0x1d, 0x59, 0x1b, 0xa1, 0x36, 0xbd,
  0x30, 0x4f, 0x4d, 0xc8, 0xc2, 0x2d, 0xec, 0xa0, 0x39, 0xc2, 0xc0, 0x1e,
  0xa4, 0x85, 0xbb, 0x2d, 0x69, 0xf9, 0xad, 0x9c, 0xd0, 0x23, 0xe2, 0xd4,
  0xf9, 0x0d, 0xa9, 0xfc, 0xf4, 0x70, 0x37, 0x21, 0x4c, 0x8e, 0x08, 0x30,
  0x34, 0x82, 0xc4, 0x05, 0xbb, 0xc6, 0xad, 0x21, 0x9b, 0x11, 0xa4, 0x5d,
  0x32, 0x8f, 0x83, 0xdc, 0xe5, 0x8d, 0xe1, 0xf5, 0xa4, 0x58, 0x13, 0x37,
  0xb8, 0x98, 0xff, 0x8c, 0x2b, 0x4b, 0xdd, 0x6f, 0xda, 0xe4, 0x9d, 0xc4,
  0x56, 0xf3, 0xe8, 0x62, 0x56, 0xa0, 0xf7, 0xb3, 0x71, 0xd3, 0x69, 0x63,
  0x96, 0x3f, 0x2f, 0x1a, 0xb6, 0x22, 0x53, 0xaf, 0x63, 0xb4, 0xa3, 0x33,
  0x85, 0xd4, 0x57, 0xf2, 0x52, 0xe0, 0xe5, 0x5b, 0xbe, 0x82, 0xdf, 0xa4,
  0xd8, 0xf3, 0x65, 0xa5, 0xae, 0x22, 0x5b, 0xcd, 0xab, 0xe8, 0x13, 0x0e,
  0xb1, 0xf7, 0x38, 0x65, 0x32, 0x66, 0x5b, 0x5e, 0xaf, 0x30, 0x51, 0x5a,
  0x96, 0x8e, 0xc7, 0x04, 0x98, 0x58, 0x59, 0x35, 0x96, 0x4b, 0xa8, 0xac,
  0x22, 0xcb, 0x6c, 0xa9, 0xef, 0x98, 0x10, 0xd1, 0xca, 0x31, 0xa4, 0x55,
  0xe1, 0x88, 0xd1, 0xd8, 0xa8, 0x02, 0xf1, 0xfe, 0xc4, 0xca, 0x07, 0x85,
  0x6b, 0xeb, 0x9c, 0xda, 0x84, 0x5c, 0x96, 0x2e, 0xe4, 0xd2, 0x4c, 0xcb,
  0x47, 0x94, 0xe9, 0x92, 0xf4, 0xcd, 0x94, 0xb3, 0xfd, 0xe1, 0x2b, 0x9a,
  0xed, 0x57, 0x11, 0x2d, 0xc7, 0x0d, 0xbf, 0x71, 0xd4, 0x3b, 0x9f, 0x9b,
  0x3d, 0x72, 0xe1, 0x2a, 0xa1, 0x15, 0x05, 0xec, 0xc4, 0x61, 0xdd, 0x65,
  0x4c, 0x57, 0x8b, 0xa6, 0x31, 0x05, 0xee, 0xa4, 0x77, 0x41, 0x29, 0x2e,
  0x90, 0x50, 0xe5, 0x0f, 0xd7, 0xb7, 0x61, 0x34, 0x1f, 0x15, 0x2d, 0xca,
  0x82, 0x8f, 0x63, 0x22, 0x10, 0xbc, 0x09, 0xec, 0xb6, 0xfb, 0x51, 0xdd,
  0xdb, 0x07, 0x64, 0xec, 0x24, 0x59, 0x99, 0x96, 0xc6, 0x3f, 0x33, 0x40,
  0x51, 0x8f, 0x90, 0x18, 0xd7, 0x4d, 0x75, 0x49, 0x9e, 0x21, 0x55, 0xef,
  0x40, 0x44, 0xed, 0xbb, 0xe2, 0x81, 0xc0, 0x76, 0xb5, 0x35, 0xd3, 0xe6,
  0xed, 0x15, 0x3e, 0x8d, 0x07, 0x8e, 0x15, 0x3f, 0x20, 0x39, 0x3d, 0x6e,
  0xe8, 0xdf, 0x06, 0xab, 0x2d, 0x70, 0xe9, 0xaa, 0x50, 0x12, 0x72, 0x42,
  0x53, 0xc2, 0xf5, 0xbd, 0x27, 0x6a, 0x7e, 0x16, 0xd9, 0x1e, 0xdf, 0x96,
  0x93, 0xea, 0x6e, 0x2f, 0xc4, 0xe4, 0x04, 0x59, 0x2d, 0x2a, 0x58, 0x97,
  0xdd, 0x0c, 0xb6, 0x49, 0xeb, 0x82, 0x66, 0x44, 0xfa, 0x8a, 0x79, 0x61,
  0xe2, 0xed, 0x81, 0x06, 0x4e, 0xce, 0xe3, 0x75, 0x8f, 0xd1, 0x42, 0x46,
  0x1d, 0xf5, 0x7e, 0x29, 0x4f, 0x84, 0x66, 0x27, 0xe8, 0xc1, 0x08, 0xcb,
  0xb9, 0x35, 0xf6, 0xbb, 0x35, 0xc0, 0xe7, 0x88, 0xd1, 0x91, 0x5f, 0x85,
  0x8b, 0x88, 0x6c, 0x0e, 0xb3, 0x7f, 0x2d, 0xb8, 0xa9, 0xe9, 0xf8, 0x5f,
  0xdd, 0xb8, 0xcc, 0x10, 0xc7, 0x8b, 0xf3, 0x69, 0x7a, 0xf9, 0xe1, 0x3b,
  0xc0, 0x52, 0xda, 0x8b, 0xc7, 0xc5, 0x4d, 0xe4, 0xd9, 0xbb, 0xdc, 0xea,
  0xa6, 0x76, 0x73, 0x94, 0xf2, 0x91, 0xcd, 0xca, 0xdb, 0x1a, 0xda, 0x9b,
  0x6d, 0x12, 0xff, 0x09, 0x9c, 0xc6, 0x82, 0xc7, 0x33, 0x4a, 0x0c, 0xa7,
  0x20, 0x23, 0x20, 0x1a, 0xeb, 0x92, 0x0e, 0x99, 0x55, 0x99, 0x40, 0x52,
  0xa3, 0xaa, 0x22, 0xc2, 0x73, 0x6e, 0xc0, 0x3f, 0x2b, 0x86, 0x8e, 0x3a,
  0x89, 0xf8, 0xf9, 0x31, 0xf1, 0x7d, 0x08, 0xed, 0x00, 0xef, 0x1e, 0x48,
  0x9e, 0x5d, 0x9e, 0x10, 0x0d, 0x76, 0x04, 0x30, 0xb9, 0x1c, 0xc2, 0x5c,
  0xe5, 0xc2, 0xf3, 0xb9, 0x98, 0x61, 0xa4, 0xe8, 0x53, 0x5c, 0x7a, 0xa6,
  0x0f, 0xc8, 0xdb, 0xc3, 0x79, 0x55, 0x04, 0x7b, 0xc8, 0x82, 0xfe, 0x89,
  0x9e, 0xc2, 0x2f, 0xf9, 0xc5, 0x98, 0xa1, 0x1b, 0xe6, 0x41, 0xef, 0xa7,
  0xc9, 0x30, 0xdb, 0x39, 0xa7, 0xe5, 0x3d, 0x55, 0xfd, 0xa7, 0x59, 0x33,
  0x77, 0x4e, 0xc8, 0xba, 0x5e, 0x85, 0xe1, 0x9d, 0xdf, 0x64, 0x05, 0x50,
  0x75, 0x07, 0x37, 0x03, 0xbb, 0x56, 0x6e, 0x42, 0x3e, 0x60, 0xdc, 0xbc,
  0x30, 0x8d, 0xe8, 0x8c, 0x20, 0x31, 0x25, 0x01, 0x3d, 0x6b, 0xe7, 0x9a,
  0x87, 0x76, 0xac, 0x5e, 0x14, 0x9b, 0x73, 0xbd, 0x85, 0xa3, 0xe1, 0x61,
  0x97, 0xf3, 0x41, 0x45, 0xfc, 0xc1, 0xdb, 0x1d, 0x2f, 0x3f, 0x57, 0xdf,
  0xd5, 0xb9, 0x96, 0xb0, 0x8b, 0xbe, 0x3e, 0xcc, 0x5b, 0x99, 0x37, 0x4b,
  0x1e, 0x2b, 0xa1, 0xb6, 0xf4, 0x86, 0x66, 0xc5, 0xdf, 0x01, 0x3e, 0xf4,
  0xa7, 0xb0, 0xbd, 0xa1, 0xfd, 0xf8, 0x55, 0x2a, 0x2f, 0x17, 0xb0, 0x0c,
  0xf2, 0x32, 0x1a, 0xc6, 0x0a, 0xca, 0xe5, 0x0f, 0x69, 0x49, 0x69, 0x1d,
  0xf3, 0xcb, 0xf7, 0xec, 0x18, 0xee, 0x06, 0x3b, 0x45, 0x47, 0xd7, 0xb9,
  0xf1, 0x14, 0x34, 0x07, 0x20, 0x19, 0x0a, 0xce, 0x19, 0x4e, 0xe2, 0x36,
  0x2d, 0x0a, 0x27, 0x3a, 0x17, 0x0f, 0x3b, 0x1c, 0x19, 0xa8, 0x12, 0x3b,
  0xf3, 0x05, 0x5a, 0x58, 0xde, 0xfa, 0xcb, 0x36, 0xea, 0x5f, 0xc8, 0x18,
  0xff, 0xd7, 0x58, 0xcc, 0xe6, 0x4b, 0xf8, 0x3b, 0xd3, 0x4c, 0x0a, 0xeb,
  0x11, 0x26, 0x35, 0x1f, 0xeb, 0x0f, 0x65, 0x48, 0x0f, 0x3c, 0x73, 0xc6,
  0xa9, 0x4f, 0x4f, 0xf9, 0x27, 0x21, 0xbe, 0x14, 0x1f, 0xd2, 0xd7, 0xd6,
  0x41, 0xda, 0xc3, 0x27, 0xc6, 0xf4, 0x10, 0xe8, 0x16, 0x3b, 0xbc, 0x2f,
  0x29, 0x4c, 0xd9, 0xfd, 0xf5, 0xca, 0xea, 0xd7, 0x53, 0x16, 0x66, 0x21,
  0x2f, 0xb1, 0x0f, 0x4e, 0xf1, 0x0c, 0x5f, 0x33, 0xe1, 0xb3, 0x28, 0x03,
  0xd5, 0x12, 0x0d, 0x49, 0x2d, 0xed, 0x1e, 0x2e, 0xeb, 0xc2, 0xf7, 0x06,
  0x68, 0x05, 0x21, 0xbf, 0xeb, 0x45, 0x38, 0x52, 0xac, 0xec, 0xce, 0xed,
  0x4b, 0xcc, 0x41, 0xd6, 0xbd, 0xea, 0xb6, 0xb0, 0x1a, 0x46, 0xed, 0x38,
  0xdb, 0xf3, 0xfc, 0xf5, 0x50, 0xc6, 0x52, 0x43, 0x2e, 0xf4, 0x58, 0xb7,
  0x53, 0xd5, 0xbd, 0x59, 0x42, 0xaa, 0xe4, 0x49, 0xb8, 0x31, 0xf0, 0xc2,
  0xbc, 0x3e, 0x4d, 0x25, 0x0d, 0xf9, 0xd1, 0xe0, 0x10, 0xcf, 0xfb, 0xe1,
  0x0e, 0x02, 0x0d, 0xf3, 0xd6, 0x17, 0x08, 0xee, 0xb3, 0x53, 0xb8, 0xc0,
  0x2a, 0xf2, 0xe1, 0x35, 0x45, 0x18, 0x58, 0xde, 0xbd, 0xed, 0x34, 0x1a,
  0xe0, 0xfd, 0xcc, 0xc0, 0x31, 0x2e, 0xa6, 0x18, 0xf9, 0x0c, 0x1a, 0x5d,
  0x06, 0x4e, 0xea, 0xb0, 0xe5, 0x17, 0x4e, 0x40, 0xba, 0x46, 0x5d, 0x5f,
  0x4c, 0xf3, 0x9c, 0x18, 0x03, 0x4a, 0x35, 0x35, 0x54, 0xfc, 0x55, 0x01,
  0x26, 0x60, 0x37, 0xc3, 0xe0, 0xfd, 0xf9, 0x58, 0x24, 0x22, 0xe1, 0xa9,
  0x45, 0x43, 0x44, 0xb3, 0x4c, 0x38, 0xf1, 0x9d, 0xc5, 0xe1, 0x4d, 0x14,
  0x0a, 0x3a, 0xa8, 0xb1, 0x58, 0xe0, 0xd5, 0x07, 0x4f, 0xb1, 0xed, 0xbc,
  0x3c, 0x2a, 0x53, 0xfe, 0x46, 0x24, 0x33, 0xcc, 0x44, 0xad, 0xab, 0xcc,
  0x16, 0xb8, 0x3a, 0x0f, 0x5b, 0x47, 0x15, 0xca, 0x38, 0xd1, 0x64, 0x40,
  0x32, 0xb2, 0x1e, 0xcc, 0x00, 0xb3, 0xcc, 0xf4, 0x48, 0x20, 0x1b, 0x53,
  0xd9, 0x4a, 0xec, 0xad, 0x13, 0xd8, 0x4d, 0x30, 0x10, 0xc0, 0x2d, 0xe7,
  0x23, 0x28, 0xfb, 0x2c, 0xd0, 0x18, 0x6b, 0x21, 0x12, 0x2d, 0x01, 0x43,
  0xb9, 0xc2, 0xbf, 0xf4, 0xfe, 0x20, 0x1b, 0xce, 0x04, 0xf5, 0x15, 0xd4,
  0x43, 0x20, 0xe8, 0x5c, 0x41, 0xf3, 0x34, 0x40, 0x55, 0xc1, 0xc3, 0xe8,
  0x06, 0xa4, 0xa1, 0x1e, 0x57, 0xf2, 0x26, 0x29, 0xcd, 0x1c, 0xd6, 0x30,
  0xce, 0xe5, 0xc0, 0xfb, 0xdc, 0xae, 0xd7, 0x67, 0x0c, 0x3f, 0xfb, 0x29,
  0x41, 0xe6, 0x4f, 0xf8, 0xff, 0xd1, 0xf3, 0x2b, 0xa3, 0x20, 0x7f, 0x41,
  0xea, 0x20, 0xac, 0xc0, 0x0e, 0x5b, 0xa3, 0x0f, 0x0c, 0x33, 0x21, 0x29,
  0xbd, 0x3f, 0x3a, 0xe1, 0x07, 0xfb, 0xbd, 0xde, 0x26, 0xa6, 0xb6, 0xfc,
  0xd5, 0x43, 0x39, 0xf9, 0x1a, 0xa9, 0xe6, 0xf8, 0x1f, 0xde, 0xef, 0xfe,
  0x04, 0x07, 0xfa, 0x2c, 0x45, 0x45, 0xee, 0x0f, 0xe5, 0xba, 0x79, 0xef,
  0xe8, 0x56, 0xd4, 0xbd, 0x37, 0x4d, 0x01, 0xbb, 0x0b, 0xd2, 0xe8, 0xaf,
  0x69, 0xc5, 0x17, 0xd0, 0x17, 0x6b, 0xce, 0x36, 0x68, 0xf9, 0x05, 0xeb,
  0x54, 0xfb, 0x19, 0x27, 0xef, 0x61, 0x64, 0x45, 0x28, 0xcd, 0x61, 0xc6,
  0x2f, 0x0d, 0xcf, 0x29, 0x1e, 0x71, 0x62, 0x17, 0x27, 0x29, 0x57, 0x41,
  0xad, 0xa9, 0x39, 0xa9, 0xe8, 0xb9, 0x6d, 0xee, 0xb8, 0x1b, 0x27, 0x0a,
  0x5e, 0xb5, 0xd0, 0x14, 0x24, 0x44, 0x2f, 0x0b, 0xb3, 0x4f, 0x33, 0xb8,
  0xe1, 0x0a, 0xdc, 0x4a, 0x27, 0x1f, 0x4d, 0xff, 0x48, 0x26, 0x4e, 0xe8,
  0x41, 0x66, 0x75, 0x2d, 0x71, 0xee, 0x55, 0x38, 0x37, 0x1c, 0x49, 0x18,
  0xb6, 0xf7, 0xd8, 0xec, 0x43, 0x19, 0x50, 0x08, 0xb7, 0x56, 0x26, 0x4e,
  0x56, 0x04, 0x45, 0xd0, 0x51, 0x54, 0x15, 0x28, 0x5b, 0x49, 0xb6, 0xd5,
  0x63, 0xd1, 0x44, 0x21, 0x06, 0xd9, 0x41, 0xed, 0xec, 0x3c, 0x3d, 0x17,
  0x6c, 0xd9, 0x23, 0x6d, 0xf9, 0x65, 0x66, 0xd7, 0x4e, 0x40, 0x07, 0x38,
  0x17, 0xc3, 0x0c, 0xc4, 0xd4, 0xa4, 0x3a, 0xd3, 0x0b, 0x4e, 0xcc, 0x03,
  0x2a, 0x19, 0x29, 0x54, 0xef, 0x00, 0xbc, 0x2c, 0xed, 0x56, 0xcc, 0x3a,
  0xcb, 0x42, 0xa9, 0x20, 0xc3, 0x5e, 0xf3, 0xb9, 0x5d, 0x01, 0x30, 0xc5,
  0xff, 0x26, 0xa9, 0x1a, 0x54, 0xce, 0xc4, 0x30, 0xf1, 0x3f, 0x5b, 0x24,
  0x34, 0x3d, 0x0d, 0x2a, 0xf2, 0x50, 0x4a, 0xe6, 0xa5, 0x1a, 0xbb, 0x23,
  0xfe, 0x18, 0xb9, 0x38, 0x03, 0x59, 0xd5, 0x64, 0x3f, 0xd9, 0xad, 0x30,
  0xc4, 0x48, 0xe5, 0x23, 0xb0, 0xe4, 0xcb, 0xb0, 0xee, 0x45, 0xce, 0x3a,
  0xb1, 0x09, 0x1d, 0xe9, 0x07, 0xc3, 0xc4, 0xfd, 0x54, 0x0e, 0xda, 0xcb,
  0x48, 0xb6, 0xf2, 0xce, 0xad, 0xdd, 0xa4, 0x30, 0xed, 0x20, 0xc6, 0x27,
  0x37, 0x06, 0x52, 0x47, 0x10, 0xc7, 0x5c, 0x33, 0xb1, 0x27, 0xc5, 0xcd,
  0x60, 0x3d, 0xb6, 0x09, 0x0a, 0x01, 0x40, 0xde, 0xbf, 0xb8, 0x36, 0xf3,
  0xdf, 0x3e, 0x1c, 0x1e, 0xf5, 0x64, 0xe3, 0x1b, 0xc4, 0xc9, 0x7f, 0xc6,
  0xcd, 0x07, 0x25, 0x01, 0x56, 0xaa, 0x2c, 0x41, 0x05, 0xf4, 0x4f, 0xd2,
  0x16, 0x22, 0x1d, 0x4b, 0xc4, 0xed, 0x5c, 0x3d, 0xfb, 0x4b, 0xfc, 0x45,
  0x5d, 0x26, 0xf1, 0xb4, 0x38, 0x48, 0xfe, 0x68, 0x25, 0xd3, 0x18, 0x35,
  0x42, 0xb9, 0x61, 0x78, 0x13, 0xec, 0x17, 0xae, 0xd6, 0x3c, 0x41, 0xa6,
  0x9b, 0xd9, 0xdf, 0x06, 0x23, 0xa2, 0x15, 0x46, 0xb9, 0x14, 0x08, 0x3e,
  0xf9, 0xf6, 0xad, 0x57, 0xbf, 0x2a, 0x15, 0x1e, 0xe0, 0xce, 0x32, 0xb6,
  0x50, 0xd3, 0x38, 0xd2, 0xb2, 0x15, 0xe3, 0x5c, 0x0e, 0x04, 0xca, 0x48,
  0xc8, 0x2b, 0x17, 0xba, 0xa9, 0xef, 0xbe, 0x2b, 0x3a, 0xdb, 0xcb, 0xea,
  0xc4, 0xb2, 0x38, 0xf3, 0x12, 0xfb, 0x01, 0xe4, 0xcb, 0xf5, 0xbc, 0x27,
  0x35, 0x9e, 0xe1, 0xcc, 0xd5, 0x0b, 0xd6, 0xc7, 0xb6, 0xcc, 0xc8, 0x72,
  0x55, 0xb8, 0xdd, 0x1e, 0xef, 0x08, 0x31, 0xfe, 0xf1, 0xdb, 0x1d, 0xa7,
  0x31, 0xe3, 0x56, 0x3b, 0xc0, 0x6c, 0xb7, 0x4c, 0xbd, 0xcb, 0x11, 0xe9,
  0xef, 0xbc, 0x49, 0xe6, 0x24, 0x32, 0x3c, 0x59, 0x5d, 0x1e, 0x47, 0x27,
  0x53, 0x33, 0x2c, 0xed, 0xa5, 0xc7, 0xc4, 0x1f, 0x1d, 0x5e, 0xf9, 0xcd,
  0x40, 0xea, 0xd0, 0xb9, 0x34, 0x10, 0x2c, 0x04, 0x25, 0x3d, 0x47, 0x44,
  0x63, 0xd9, 0xe6, 0xd1, 0xdd, 0x78, 0xf7, 0x5e, 0x0a, 0xca, 0xe4, 0x88,
  0xfc, 0x1a, 0x0e, 0xeb, 0x26, 0xa9, 0x4f, 0xe1, 0xd2, 0x1b, 0x08, 0x39,
  0x19, 0x04, 0x55, 0x0b, 0xc8, 0x16, 0x6c, 0x9d, 0x9e, 0xd5, 0xa6, 0x76,
  0xe9, 0x54, 0xcb, 0x2f, 0x8c, 0x75, 0xf7, 0x72, 0x5e, 0x60, 0x23, 0xe1,
  0x4f, 0x44, 0xcf, 0x87, 0x9b, 0xd6, 0xec, 0x5e, 0x28, 0x85, 0xd2, 0xf0,
  0x8c, 0x21, 0x30, 0x89, 0x71, 0x41, 0x5b, 0xcf, 0x68, 0x1b, 0x31, 0x15,
  0x9b, 0xf7, 0xa1, 0xcc, 0x73, 0x81, 0xf2, 0x47, 0x3f, 0x12, 0x6a, 0x58,
  0x9a, 0x99, 0xd4, 0xbf, 0xa2, 0x32, 0x50, 0xb5, 0x30, 0x2e, 0xad, 0xed,
  0xda, 0xbd, 0x12, 0xa5, 0x42, 0x68, 0xf1, 0x35, 0x58, 0x45, 0xb4, 0x5d,
  0xbd, 0xf6, 0xb0, 0x25, 0x0b, 0xcc, 0x1f, 0xde, 0x48, 0x1d, 0x8f, 0x4e,
  0xfb, 0x65, 0x30, 0xd6, 0x33, 0xec, 0xc1, 0x0a, 0xc1, 0x0e, 0xa3, 0x67,
  0x93, 0x72, 0x62, 0x68, 0x1c, 0xc4, 0x18, 0x87, 0x72, 0xd3, 0xed, 0xeb,
  0xb1, 0xfa, 0x17, 0x8e, 0x14, 0x19, 0x16, 0x56, 0xdd, 0x49, 0xf0, 0xaa,
  0x03, 0x03, 0xe2, 0x82, 0x56, 0x43, 0xbc, 0x37, 0x92, 0x2f, 0x44, 0xe4,
  0x95, 0xb5, 0xb6, 0xc9, 0x99, 0x4e, 0x55, 0xb8, 0xae, 0x9a, 0xe4, 0x3e,
  0x06, 0xf6, 0xb5, 0xe9, 0x31, 0x2f, 0xfc, 0x27, 0xdb, 0x8f, 0x67, 0x01,
  0x16, 0x08, 0x44, 0x8d, 0x3a, 0xa9, 0x71, 0xf4, 0xc6, 0xf7, 0x30, 0x2c,
  0xa7, 0x0a, 0xab, 0x81, 0x8c, 0x27, 0x09, 0x11, 0x9a, 0xea, 0x2a, 0xcd,
  0xef, 0x38, 0x5a, 0xab, 0xba, 0x8b, 0x6e, 0x95, 0xdb, 0xcc, 0x36, 0xbd,
  0x17, 0xd7, 0xc7, 0xac, 0xd9, 0xb5, 0xff, 0xad, 0x83, 0x1e, 0x1e, 0xca,
  0x40, 0x32, 0x37, 0xa2, 0xde, 0x3c, 0xa9, 0x74, 0x17, 0x18, 0xfb, 0xbe,
  0x15, 0xd1, 0x73, 0x5a, 0xaf, 0xd3, 0xa4, 0xcb, 0x62, 0x41, 0x23, 0x79,
  0x72, 0x40, 0x63, 0x01, 0x63, 0x97, 0x87, 0x45, 0x6d, 0xb3, 0xf8, 0x18,
  0xa6, 0xfa, 0x8e, 0xfc, 0x2f, 0x28, 0x81, 0x6c, 0x67, 0x0e, 0x92, 0xfe,
  0xc4, 0x5e, 0x14, 0xf4, 0xd8, 0xb3, 0x58, 0xef, 0x12, 0x05, 0xed, 0xf8,
  0x9f, 0x24, 0x41, 0x51, 0x45, 0xb6, 0x28, 0xb8, 0x13, 0xad, 0xce, 0x65,
  0xeb, 0x01, 0x20, 0x27, 0xca, 0xf3, 0x01, 0xd9, 0x4f, 0xb6, 0xab, 0xe9,
  0x16, 0x67, 0x1b, 0xd9, 0x8d, 0xe3, 0x37, 0xa1, 0xa1, 0x48, 0x69, 0x1f,
  0xac, 0xcd, 0x5f, 0xef, 0xab, 0xea, 0xaa, 0xb1, 0xbb, 0x86, 0xcb, 0x23,
  0x69, 0x95, 0x47, 0x3c, 0x0d, 0x3b, 0x89, 0xab, 0x0f, 0x3f, 0xf7, 0xb9,
  0x6d, 0x64, 0xf7, 0xbf, 0x40, 0x03, 0xc5, 0xe1, 0x6d, 0xa5, 0xb1, 0xb2,
  0x76, 0xa5, 0x73, 0x3a, 0xa9, 0xd0, 0xef, 0xe8, 0x8a, 0x67, 0x06, 0x04,
  0xcf, 0x90, 0x93, 0x13, 0x2b, 0x86, 0x01, 0xb4, 0x3f, 0x11, 0x60, 0xd5,
  0xa3, 0xc7, 0xd0, 0x9b, 0x27, 0x50, 0xaf, 0x79, 0xda, 0x86, 0xcc, 0xc8,
  0x07, 0xca, 0x5b, 0x22, 0x70, 0x5a, 0xe1, 0x37, 0x22, 0xe1, 0xba, 0xfb,
  0x38, 0x84, 0xcf, 0xc9, 0x5d, 0x71, 0x0b, 0x9c, 0x6d, 0x41, 0x55, 0x5e,
  0x55, 0xe9, 0x79, 0x14, 0x70, 0xc4, 0x6f, 0xc5, 0xc0, 0x98, 0x08, 0x54,
  0xe4, 0xd9, 0x20, 0x26, 0xb6, 0x5c, 0x53, 0x90, 0x0b, 0x97, 0xfd, 0x5f,
  0x37, 0xf0, 0x95, 0x5c, 0x39, 0xc4, 0xb2, 0x06, 0xd0, 0xe3, 0x85, 0xdd,
  0x43, 0xe9, 0xfc, 0xb9, 0x9b, 0xb0, 0x3b, 0xda, 0x28, 0xb4, 0x3e, 0x91,
  0xda, 0x73, 0x3e, 0x3c, 0xd1, 0xa6, 0x11, 0x34, 0x02, 0x13, 0x7f, 0x0a,
  0xe6, 0x40, 0xe1, 0xf9, 0x16, 0xaa, 0x4f, 0x12, 0x4c, 0x02, 0xfb, 0xd3,
  0x8d, 0x3c, 0x28, 0x1e, 0x45, 0x0d, 0x31, 0x9d, 0xa7, 0xee, 0xa5, 0xc6,
  0x1d, 0xee, 0x61, 0x53, 0x4a, 0xb2, 0xf3, 0xc1, 0x71, 0xa0, 0xf5, 0x39,
  0x06, 0x58, 0x24, 0x12, 0x38, 0x45, 0x42, 0xae, 0xe5, 0xb2, 0x51, 0xa7,
  0x98, 0xbf, 0x59, 0x4b, 0xc2, 0xcd, 0xbb, 0xb1, 0xf1, 0x37, 0x17, 0x65,
  0x9c, 0xe0, 0x28, 0x5b, 0xb5, 0x59, 0xd4, 0x93, 0xae, 0xca, 0xb9, 0x00,
  0xbe, 0xff, 0x10, 0x42, 0x2f, 0xb4, 0xe5, 0xd7, 0x68, 0x9b, 0x68, 0x5b,
  0x99, 0x47, 0x9e, 0x51, 0xf9, 0x38, 0xe4, 0x9b, 0xfd, 0x5e, 0x64, 0xad,
  0x3d, 0x96, 0xb2, 0xfa, 0xdc, 0x1d, 0xe0, 0xdc, 0xbe, 0x41, 0x6b, 0x38,
  0x05, 0xdf, 0xb7, 0x43, 0x26, 0xbb, 0x01, 0x73, 0xe4, 0x9a, 0x05, 0x3c,
  0xfe, 0x76, 0x2d, 0xab, 0x2d, 0x3d, 0x19, 0x30, 0xe0, 0xa5, 0x17, 0x9f,
  0x9a, 0xad, 0x1b, 0xdf, 0xef, 0x3f, 0xfd, 0xb4, 0xd9, 0x38, 0x0c, 0xe1,
  0xab, 0x9a, 0xea, 0xb6, 0xb0, 0xf3, 0xb3, 0x95, 0x2e, 0xc2, 0x54, 0xd0,
  0x64, 0x1d, 0x02, 0x35, 0xd4, 0xab, 0xb8, 0xb4, 0xb1, 0xf3, 0x20, 0x22,
  0x7e, 0x2d, 0xd0, 0x22, 0xb4, 0x46, 0x44, 0xe8, 0x9b, 0x08, 0x5d, 0x15,
  0x63, 0x4c, 0xfb, 0x9c, 0xe9, 0xf4, 0x24, 0x56, 0x8a, 0xc6, 0x12, 0x74,
  0x36, 0x24, 0xa0, 0x70, 0x5e, 0x32, 0xd4, 0x8f, 0x69, 0x1c, 0xe7, 0x48,
  0xd1, 0xa1, 0xd5, 0x04, 0xdc, 0x44, 0x3c, 0x55, 0x76, 0xbe, 0xae, 0x29,
  0x1f, 0x11, 0xc7, 0x49, 0x5b, 0xce, 0xd8, 0xcc, 0x59, 0x3b, 0x41, 0x51,
  0x63, 0xf0, 0x61, 0x7a, 0xd7, 0x3d, 0x02, 0x3e, 0x71, 0xe7, 0x3f, 0x55,
  0x1a, 0x07, 0x0d, 0xad, 0x44, 0x29, 0x69, 0xe4, 0x15, 0x25, 0xad, 0x6a,
  0x5e, 0x2f, 0x05, 0x68, 0x21, 0xe4, 0x0c, 0x4a, 0x1f, 0x28, 0x94, 0x41,
  0x56, 0x04, 0xea, 0xc1, 0xd9, 0x92, 0x9b, 0xc5, 0xd6, 0x3f, 0xd8, 0x76,
  0xb5, 0xba, 0x06, 0xfc, 0x19, 0x45, 0xae, 0x0f, 0x12, 0xef, 0x10, 0x3a,
  0x67, 0xd6, 0x32, 0x07, 0xc9, 0xef, 0x15, 0xa4, 0xcc, 0x99, 0xe2, 0x0a,
  0x96, 0xa9, 0x2a, 0xa1, 0x2f, 0x16, 0x53, 0x6b, 0x91, 0xc2, 0xc7, 0x2d,
  0xb0, 0x0a, 0x49, 0xaf, 0x9d, 0x2a, 0xb9, 0x6f, 0xb5, 0x71, 0x79, 0xbd,
  0xef, 0x47, 0x22, 0x0e, 0xd7, 0x61, 0x41, 0x59, 0x3d, 0x65, 0x5e, 0xee,
  0xf4, 0xb4, 0x40, 0x0a, 0xee, 0x03, 0xef, 0x69, 0x5a, 0x51, 0xcf, 0xc8,
  0xf3, 0xb2, 0x28, 0xa4, 0xbc, 0xd8, 0xd7, 0x32, 0x4e, 0x56, 0x98, 0x09,
  0x97, 0x27, 0xe8, 0x18, 0xba, 0xad, 0x5d, 0xb7, 0x5d, 0xee, 0x4d, 0xbe,
  0x77, 0xa2, 0xe9, 0xb9, 0x1d, 0xc5, 0xa7, 0x8d, 0x34, 0xbd, 0x08, 0x03,
  0x3c, 0x5f, 0x71, 0x13, 0xf3, 0xbf, 0x40, 0xdc, 0x06, 0x4e, 0x3c, 0x42,
  0xf2, 0xc7, 0x03, 0xf1, 0xcf, 0x23, 0xd8, 0x57, 0xce, 0xbc, 0xca, 0xfa,
  0x1f, 0xce, 0xb4, 0xd1, 0xf1, 0x99, 0x03, 0x60, 0xae, 0xce, 0x09, 0xcd,
  0x7a, 0xeb, 0xce, 0xd4, 0xa1, 0x5f, 0xfe, 0xc2, 0x8b, 0x6d, 0xaf, 0x02,
  0xb9, 0x89, 0x5f, 0x91, 0x52, 0x2d, 0x48, 0x65, 0xd7, 0x07, 0x2f, 0x24,
  0x9a, 0x09, 0x92, 0x53, 0xd2, 0xfa, 0xe6, 0xc6, 0x93, 0xdd, 0x13, 0x6e,
  0x54, 0xd5, 0x97, 0x9d, 0x4e, 0xb3, 0xe6, 0xc3, 0x8a, 0x52, 0xf3, 0xb1,
  0xad, 0xa7, 0xd0, 0x13, 0xbf, 0x50, 0x2f, 0x0a, 0x9e, 0x4b, 0x8c, 0x34,
  0x0a, 0xc4, 0x82, 0xb6, 0x9e, 0x9a, 0xfd, 0xbe, 0x91, 0x50, 0x67, 0xdf,
  0xbd, 0xe6, 0xaf, 0xdd, 0x9b, 0x97, 0x88, 0xb1, 0x4a, 0x21, 0xb3, 0x1a,
  0x97, 0xff, 0x68, 0x4e, 0xa0, 0xe9, 0xe3, 0x68, 0x51, 0xb6, 0x10, 0x20,
  0xc3, 0x04, 0x58, 0x6e, 0xc6, 0x98, 0x64, 0x6f, 0xe3, 0x28, 0x93, 0x4b,
  0xb0, 0xc0, 0x2d, 0x4f, 0xdc, 0xb1, 0xe0, 0x59, 0x8e, 0xaa, 0xc8, 0x3d,
  0xe9, 0xf2, 0x65, 0xc9, 0x0a, 0x8d, 0x60, 0xbb, 0x25, 0x95, 0xce, 0x99,
  0x2d, 0x66, 0x09, 0x4e, 0x9f, 0xc1, 0x5c, 0xa1, 0x76, 0x72, 0xb3, 0x50,
  0x97, 0xce, 0x2b, 0xaf, 0x07, 0xf9, 0xd8, 0x5b, 0x6b, 0x2d, 0xc6, 0x39,
  0xd2, 0x13, 0xfc, 0xf2, 0xf3, 0x59, 0xe0, 0xfd, 0x7e, 0x29, 0x9b, 0xca,
  0x45, 0x17, 0x6c, 0x34, 0x04, 0x35, 0x69, 0xdf, 0xb3, 0x26, 0xad, 0x33,
  0x3b, 0x77, 0xa2, 0xa2, 0x36, 0x4d, 0xdb, 0xec, 0xe3, 0xd4, 0x75, 0x4c,
  0xa1, 0xb7, 0x34, 0xc5, 0x38, 0x3f, 0xcd, 0x02, 0x76, 0x11, 0xa6, 0x51,
  0x53, 0x48, 0x65, 0x2f, 0xa4, 0x56, 0xcf, 0xdb, 0xb5, 0x14, 0xdb, 0x04,
  0x51, 0x3d, 0xa3, 0x1a, 0xcf, 0xd7, 0x6d, 0x3a, 0x93, 0x4b, 0x35, 0x8e,
  0x02, 0x1f, 0xa4, 0x90, 0x90, 0xc1, 0x93, 0xf9, 0x3d, 0xd7, 0xeb, 0xb9,
  0xb4, 0xfc, 0xf5, 0x93, 0x9c, 0x85, 0x9e, 0x9a, 0x71, 0x30, 0xe4, 0x71,
  0xaa, 0xee, 0xfd, 0x5d, 0xf4, 0xb8, 0x1e, 0x2a, 0xa9, 0x82, 0xaa, 0x0e,
  0x14, 0x9b, 0x37, 0xdb, 0x34, 0xf0, 0x25, 0x04, 0x00, 0xc6, 0x66, 0x8d,
  0x4c, 0xe5, 0x96, 0x47, 0x08, 0x3c, 0xcf, 0x5b, 0xe9, 0x70, 0x34, 0x3d,
  0x55, 0x1d, 0x39, 0x99, 0xa8, 0x46, 0x92, 0x4e, 0x5f, 0x16, 0x76, 0xaf,
  0x63, 0x6e, 0xae, 0xd1, 0x9d, 0x51, 0xf0, 0x69, 0x9b, 0x54, 0xc4, 0x91,
  0xf1, 0x23, 0xee, 0x06, 0xc9, 0x5d, 0xf8, 0x09, 0x0e, 0x1a, 0x12, 0x10,
  0xd8, 0x53, 0xb4, 0xd3, 0x58, 0x03, 0x88, 0xcf, 0xea, 0x6a, 0x00, 0x45,
  0x56, 0x9f, 0x37, 0x52, 0x86, 0x20, 0x92, 0xbe, 0x89, 0x5b, 0xf4, 0x88,
  0x23, 0xa3, 0x75, 0x8f, 0xe1, 0xed, 0xe5, 0x26, 0x28, 0xee, 0xd3, 0x49,
  0x75, 0x58, 0x4f, 0xf1, 0x23, 0xdc, 0xea, 0x17, 0x4a, 0xe8, 0xd0, 0xab,
  0xde, 0x02, 0xfe, 0xbd, 0x03, 0xc9, 0xa8, 0x20, 0x16, 0x9a, 0xf2, 0x5a,
  0x6b, 0xc0, 0xe7, 0xb4, 0x05, 0x06, 0x38, 0x37, 0xb9, 0x50, 0xf4, 0xb4,
  0xc9, 0xb6, 0xc9, 0xb9, 0x7e, 0xc7, 0x05, 0x4e, 0xda, 0xa0, 0x44, 0xfe,
  0x1f, 0xf2, 0x57, 0x34, 0xca, 0x39, 0xb5, 0xd9, 0xc0, 0x11, 0x8c, 0x33,
  0xd8, 0xdd, 0x26, 0x91, 0x7f, 0xf5, 0xa6, 0x67, 0x78, 0x33, 0x7c, 0xe7,
  0x9d, 0xce, 0xb6, 0xff, 0x2b, 0x37, 0x91, 0x97, 0xbd, 0x5d, 0x8e, 0x7e,
  0x3b, 0xd2, 0x18, 0xf9, 0xf4, 0x74, 0x9c, 0xa6, 0xed, 0x93, 0x55, 0x57,
  0xc2, 0xee, 0xbb, 0xb0, 0xe1, 0x13, 0x95, 0x02, 0x78, 0x2a, 0x74, 0xcf,
  0x9e, 0x87, 0x8c, 0x76, 0xa9, 0xf0, 0x5e, 0xc6, 0xb3, 0x74, 0x6c, 0x8d,
  0xd0, 0x92, 0xd6, 0x74, 0x4a, 0x63, 0xee, 0xc0, 0xf3, 0xf5, 0xe9, 0x3f,
  0xe2, 0x62, 0x03, 0xb4, 0xc2, 0xaa, 0x07, 0x0a, 0xe1, 0x2d, 0xb9, 0x29,
  0x47, 0x46, 0xef, 0x21, 0xe2, 0x10, 0xc3, 0x8c, 0x78, 0x25, 0x64, 0x96,
  0x20, 0x9f, 0x5b, 0x9b, 0xed, 0x09, 0x13, 0x37, 0x05, 0x4d, 0x9e, 0x3e,
  0x0d, 0x30, 0xcb, 0x41, 0x72, 0x64, 0xaa, 0xd5, 0xee, 0xf5, 0xff, 0xff,
  0x04, 0x00, 0x00, 0x00, 0x80, 0x04, 0x00, 0x00, 0xb3, 0x38, 0xbb, 0x09,
  0x58, 0xd8, 0xc6, 0xb1, 0xde, 0x70, 0x46, 0xb2, 0xcc, 0x48, 0x54, 0xd1,
  0x95, 0x3d, 0xe0, 0xf1, 0x57, 0x75, 0x2e, 0xe9, 0x8c, 0xc7, 0xa7, 0x41,
  0x6e, 0x91, 0x4d, 0xc0, 0x53, 0x6a, 0x57, 0xfe, 0xa7, 0xc8, 0x30, 0x35,
  0x86, 0x78, 0x47, 0x97, 0xda, 0x2e, 0x03, 0xfe, 0x3b, 0xe2, 0x4d, 0x97,
  0x19, 0x28, 0x05, 0xea, 0x00, 0x0d, 0x09, 0xd1, 0x91, 0xc2, 0x74, 0x0c,
  0xc4, 0x81, 0xcf, 0x2b, 0xf2, 0xf3, 0x58, 0x28, 0x00, 0x87, 0x5a, 0x6d,
  0xab, 0x64, 0x7f, 0xa9, 0x93, 0x4f, 0xba, 0xf7, 0x2c, 0x05, 0xb5, 0x3e,
  0x55, 0xfc, 0x21, 0xb5, 0x0c, 0xfa, 0x97, 0x9e, 0x65, 0x1d, 0x24, 0x6f,
  0x0a, 0xe8, 0xcd, 0xe1, 0xdb, 0x52, 0xbd, 0xa9, 0x72, 0x2e, 0x6f, 0x1c,
  0x61, 0x03, 0x1d, 0x67, 0xee, 0x76, 0x21, 0x01, 0xdd, 0x95, 0x64, 0x60,
  0xbc, 0xd6, 0x5b, 0x63, 0xf2, 0x5c, 0x32, 0x96, 0xab, 0xc2, 0x47, 0xc3,
  0xf6, 0x78, 0x36, 0xb3, 0x89, 0x93, 0x2b, 0xeb, 0x1b, 0xa1, 0x33, 0x0a,
  0x52, 0xa6, 0xa0, 0xab, 0x40, 0x3a, 0xf6, 0x8d, 0x40, 0x53, 0x3d, 0xc1,
  0xe7, 0xfc, 0x55, 0xdf, 0x36, 0xe6, 0x81, 0x32, 0xae, 0xa4, 0xdf, 0xec,
  0x06, 0x9f, 0x7c, 0xc7, 0xec, 0xea, 0x96, 0x72, 0x3c, 0x2a, 0x17, 0x81,
  0x3e, 0xe0, 0xd9, 0xc9, 0xc7, 0xdb, 0xc2, 0xf9, 0x47, 0xa9, 0xb1, 0x71,
  0xe4, 0x55, 0x40, 0x2c, 0x39, 0xff, 0x04, 0xdc, 0xf8, 0x93, 0x2e, 0xca,
  0x75, 0x3b, 0x07, 0x66, 0xbe, 0x39, 0xea, 0x50, 0x07, 0x7f, 0x17, 0xf9,
  0xc0, 0x0c, 0x4e, 0xc0, 0xd3, 0xb6, 0xf2, 0x90, 0x67, 0xc3, 0x3f, 0x8c,
  0x0b, 0xe5, 0x4d, 0x31, 0x40, 0xbf, 0x59, 0x8d, 0x3b, 0xf1, 0xe1, 0xd0,
  0xdd, 0x32, 0x47, 0x85, 0x38, 0xcb, 0xed, 0x86, 0x5b, 0x5c, 0xbc, 0x2e,
  0x73, 0xd3, 0x26, 0x5d, 0x5a, 0x18, 0xe2, 0x4d, 0x29, 0xce, 0x98, 0x98,
  0x72, 0x58, 0x24, 0x05, 0x4c, 0x50, 0x60, 0x1e, 0xdb, 0xb1, 0x71, 0xef,
  0x68, 0x0c, 0xfd, 0xdb, 0xc6, 0xbc, 0x24, 0xd8, 0xc2, 0x08, 0xe3, 0xa1,
